unsigned char wk_model_nihaoxiaoxing_tflite[] = {
  0x20, 0x00, 0x00, 0x00, 0x54, 0x46, 0x4c, 0x33, 0x00, 0x00, 0x00, 0x00,
  0x14, 0x00, 0x20, 0x00, 0x1c, 0x00, 0x18, 0x00, 0x14, 0x00, 0x10, 0x00,
  0x0c, 0x00, 0x00, 0x00, 0x08, 0x00, 0x04, 0x00, 0x14, 0x00, 0x00, 0x00,
  0x1c, 0x00, 0x00, 0x00, 0x88, 0x00, 0x00, 0x00, 0xe0, 0x00, 0x00, 0x00,
  0x90, 0x0c, 0x00, 0x00, 0xa0, 0x0c, 0x00, 0x00, 0x0c, 0x1e, 0x00, 0x00,
  0x03, 0x00, 0x00, 0x00, 0x01, 0x00, 0x00, 0x00, 0x04, 0x00, 0x00, 0x00,
  0x2e, 0xf1, 0xff, 0xff, 0x0c, 0x00, 0x00, 0x00, 0x1c, 0x00, 0x00, 0x00,
  0x38, 0x00, 0x00, 0x00, 0x0f, 0x00, 0x00, 0x00, 0x73, 0x65, 0x72, 0x76,
  0x69, 0x6e, 0x67, 0x5f, 0x64, 0x65, 0x66, 0x61, 0x75, 0x6c, 0x74, 0x00,
  0x01, 0x00, 0x00, 0x00, 0x04, 0x00, 0x00, 0x00, 0x94, 0xff, 0xff, 0xff,
  0x1a, 0x00, 0x00, 0x00, 0x04, 0x00, 0x00, 0x00, 0x07, 0x00, 0x00, 0x00,
  0x64, 0x65, 0x6e, 0x73, 0x65, 0x5f, 0x31, 0x00, 0x01, 0x00, 0x00, 0x00,
  0x04, 0x00, 0x00, 0x00, 0x32, 0xf1, 0xff, 0xff, 0x04, 0x00, 0x00, 0x00,
  0x0d, 0x00, 0x00, 0x00, 0x72, 0x65, 0x73, 0x68, 0x61, 0x70, 0x65, 0x5f,
  0x69, 0x6e, 0x70, 0x75, 0x74, 0x00, 0x00, 0x00, 0x02, 0x00, 0x00, 0x00,
  0x34, 0x00, 0x00, 0x00, 0x04, 0x00, 0x00, 0x00, 0xdc, 0xff, 0xff, 0xff,
  0x1d, 0x00, 0x00, 0x00, 0x04, 0x00, 0x00, 0x00, 0x13, 0x00, 0x00, 0x00,
  0x43, 0x4f, 0x4e, 0x56, 0x45, 0x52, 0x53, 0x49, 0x4f, 0x4e, 0x5f, 0x4d,
  0x45, 0x54, 0x41, 0x44, 0x41, 0x54, 0x41, 0x00, 0x08, 0x00, 0x0c, 0x00,
  0x08, 0x00, 0x04, 0x00, 0x08, 0x00, 0x00, 0x00, 0x1c, 0x00, 0x00, 0x00,
  0x04, 0x00, 0x00, 0x00, 0x13, 0x00, 0x00, 0x00, 0x6d, 0x69, 0x6e, 0x5f,
  0x72, 0x75, 0x6e, 0x74, 0x69, 0x6d, 0x65, 0x5f, 0x76, 0x65, 0x72, 0x73,
  0x69, 0x6f, 0x6e, 0x00, 0x1e, 0x00, 0x00, 0x00, 0xac, 0x0b, 0x00, 0x00,
  0xa4, 0x0b, 0x00, 0x00, 0x90, 0x0b, 0x00, 0x00, 0x7c, 0x0b, 0x00, 0x00,
  0x68, 0x0b, 0x00, 0x00, 0x54, 0x0b, 0x00, 0x00, 0x4c, 0x0b, 0x00, 0x00,
  0x34, 0x0b, 0x00, 0x00, 0x20, 0x0b, 0x00, 0x00, 0x00, 0x0b, 0x00, 0x00,
  0xb0, 0x0a, 0x00, 0x00, 0xa0, 0x02, 0x00, 0x00, 0x70, 0x02, 0x00, 0x00,
  0x40, 0x01, 0x00, 0x00, 0x20, 0x01, 0x00, 0x00, 0xec, 0x00, 0x00, 0x00,
  0xe4, 0x00, 0x00, 0x00, 0xdc, 0x00, 0x00, 0x00, 0xd4, 0x00, 0x00, 0x00,
  0xcc, 0x00, 0x00, 0x00, 0xc4, 0x00, 0x00, 0x00, 0xbc, 0x00, 0x00, 0x00,
  0xb4, 0x00, 0x00, 0x00, 0xac, 0x00, 0x00, 0x00, 0xa4, 0x00, 0x00, 0x00,
  0x9c, 0x00, 0x00, 0x00, 0x94, 0x00, 0x00, 0x00, 0x8c, 0x00, 0x00, 0x00,
  0x6c, 0x00, 0x00, 0x00, 0x04, 0x00, 0x00, 0x00, 0x26, 0xf2, 0xff, 0xff,
  0x04, 0x00, 0x00, 0x00, 0x58, 0x00, 0x00, 0x00, 0x0c, 0x00, 0x00, 0x00,
  0x08, 0x00, 0x0e, 0x00, 0x08, 0x00, 0x04, 0x00, 0x08, 0x00, 0x00, 0x00,
  0x10, 0x00, 0x00, 0x00, 0x28, 0x00, 0x00, 0x00, 0x00, 0x00, 0x06, 0x00,
  0x08, 0x00, 0x04, 0x00, 0x06, 0x00, 0x00, 0x00, 0x04, 0x00, 0x00, 0x00,
  0x01, 0x00, 0x00, 0x00, 0xeb, 0x03, 0x00, 0x00, 0x00, 0x00, 0x0a, 0x00,
  0x10, 0x00, 0x0c, 0x00, 0x08, 0x00, 0x04, 0x00, 0x0a, 0x00, 0x00, 0x00,
  0x02, 0x00, 0x00, 0x00, 0x02, 0x00, 0x00, 0x00, 0x04, 0x00, 0x00, 0x00,
  0x06, 0x00, 0x00, 0x00, 0x32, 0x2e, 0x31, 0x30, 0x2e, 0x30, 0x00, 0x00,
  0x8a, 0xf2, 0xff, 0xff, 0x04, 0x00, 0x00, 0x00, 0x10, 0x00, 0x00, 0x00,
  0x31, 0x2e, 0x31, 0x34, 0x2e, 0x30, 0x00, 0x00, 0x00, 0x00, 0x00, 0x00,
  0x00, 0x00, 0x00, 0x00, 0xa8, 0xe4, 0xff, 0xff, 0xac, 0xe4, 0xff, 0xff,
  0xb0, 0xe4, 0xff, 0xff, 0xb4, 0xe4, 0xff, 0xff, 0xb8, 0xe4, 0xff, 0xff,
  0xbc, 0xe4, 0xff, 0xff, 0xc0, 0xe4, 0xff, 0xff, 0xc4, 0xe4, 0xff, 0xff,
  0xc8, 0xe4, 0xff, 0xff, 0xcc, 0xe4, 0xff, 0xff, 0xd0, 0xe4, 0xff, 0xff,
  0xd4, 0xe4, 0xff, 0xff, 0xd6, 0xf2, 0xff, 0xff, 0x04, 0x00, 0x00, 0x00,
  0x24, 0x00, 0x00, 0x00, 0x16, 0x3a, 0x4f, 0x28, 0x58, 0x09, 0x7f, 0x27,
  0x2d, 0xdb, 0x3d, 0x37, 0xcb, 0xd1, 0x4f, 0x81, 0x43, 0x19, 0x21, 0xa0,
  0xf2, 0x24, 0xc1, 0x44, 0x49, 0xd1, 0x7f, 0x45, 0xc1, 0x81, 0x55, 0xf5,
  0x97, 0x79, 0x3d, 0xcc, 0x06, 0xf3, 0xff, 0xff, 0x04, 0x00, 0x00, 0x00,
  0x10, 0x00, 0x00, 0x00, 0x1d, 0x02, 0x00, 0x00, 0x9e, 0x02, 0x00, 0x00,
  0x42, 0x01, 0x00, 0x00, 0x42, 0x00, 0x00, 0x00, 0x22, 0xf3, 0xff, 0xff,
  0x04, 0x00, 0x00, 0x00, 0x20, 0x01, 0x00, 0x00, 0x6d, 0x13, 0xf9, 0xd1,
  0xd5, 0xdf, 0x54, 0x3e, 0xb7, 0xfc, 0x1f, 0x00, 0x4a, 0xa6, 0xf9, 0x1a,
  0xa9, 0x86, 0x3c, 0x19, 0xe4, 0xdf, 0xfd, 0xf1, 0xf2, 0x97, 0x1c, 0xaa,
  0xfb, 0x49, 0xb3, 0x4a, 0xe8, 0x81, 0xa8, 0x46, 0xba, 0x10, 0x18, 0x29,
  0x03, 0xef, 0x17, 0x0e, 0xf2, 0x28, 0x18, 0x0b, 0xdc, 0x82, 0x15, 0x22,
  0xd6, 0xb5, 0x3a, 0x15, 0xe1, 0x2a, 0xd0, 0x22, 0x38, 0xa1, 0xef, 0xf5,
  0x01, 0xd4, 0x1e, 0x34, 0x81, 0xdd, 0xed, 0x43, 0x9f, 0xc8, 0x2a, 0x30,
  0xe7, 0x8e, 0x62, 0x2c, 0xc9, 0x15, 0xcb, 0xf6, 0x01, 0x81, 0x68, 0x5d,
  0x23, 0x18, 0xe5, 0xed, 0xcb, 0xdc, 0xe6, 0xd4, 0xff, 0xeb, 0x45, 0xfd,
  0x2e, 0xfb, 0xfd, 0xcc, 0x01, 0x16, 0x4f, 0xea, 0xd3, 0xd9, 0x22, 0x17,
  0x2e, 0x1d, 0xba, 0x79, 0x3a, 0xab, 0xf6, 0x2c, 0x1c, 0xaa, 0x07, 0x2c,
  0x0e, 0x0a, 0xd0, 0x3b, 0x47, 0xba, 0x03, 0x31, 0xb2, 0x26, 0x81, 0x2e,
  0xaa, 0x04, 0xe7, 0x1f, 0x6d, 0xfb, 0x1a, 0x29, 0xe8, 0x71, 0xb6, 0xfb,
  0xc4, 0x81, 0x23, 0x28, 0xe4, 0xe2, 0xf2, 0x1b, 0xc7, 0x0c, 0xc4, 0xfd,
  0x1a, 0xe4, 0x5a, 0x27, 0xc7, 0xf5, 0x10, 0xb1, 0xc4, 0x2f, 0xca, 0x98,
  0x48, 0xee, 0x2f, 0x11, 0x12, 0xf6, 0x13, 0xa4, 0x1b, 0xfc, 0xc9, 0x1f,
  0x32, 0x03, 0x0b, 0x0e, 0xc0, 0xfd, 0xba, 0x1f, 0xed, 0xde, 0xe4, 0x20,
  0xfc, 0xde, 0x0f, 0x2c, 0x81, 0xe1, 0xee, 0x12, 0xe1, 0x00, 0xfc, 0x4c,
  0x3e, 0xda, 0x36, 0x30, 0xf4, 0x04, 0x25, 0xce, 0x0b, 0x43, 0x23, 0xc9,
  0x2c, 0xd6, 0x1c, 0x22, 0xae, 0xd3, 0x15, 0x11, 0xd4, 0xc8, 0x5b, 0xc6,
  0x20, 0xc9, 0xdf, 0x20, 0x11, 0x14, 0xf6, 0xa3, 0x9a, 0xbf, 0x55, 0x7f,
  0xda, 0xa3, 0x2e, 0x43, 0xf2, 0x58, 0xa5, 0xa9, 0x21, 0xe9, 0x17, 0x81,
  0x14, 0x40, 0xf9, 0xd9, 0x2b, 0x16, 0xc7, 0x17, 0x13, 0x14, 0x08, 0xc3,
  0x0f, 0x10, 0xe6, 0xe3, 0xdf, 0xfc, 0x22, 0x16, 0xe8, 0x53, 0x9b, 0xb7,
  0xe7, 0xf9, 0x11, 0xee, 0xf3, 0xed, 0xfa, 0x30, 0x4e, 0xf4, 0xff, 0xff,
  0x04, 0x00, 0x00, 0x00, 0x20, 0x00, 0x00, 0x00, 0x5f, 0xfe, 0xff, 0xff,
  0x7d, 0x01, 0x00, 0x00, 0x63, 0x10, 0x00, 0x00, 0xfd, 0xfa, 0xff, 0xff,
  0x86, 0xff, 0xff, 0xff, 0x8d, 0xfd, 0xff, 0xff, 0xec, 0xfe, 0xff, 0xff,
  0xa0, 0x01, 0x00, 0x00, 0x7a, 0xf4, 0xff, 0xff, 0x04, 0x00, 0x00, 0x00,
  0x00, 0x08, 0x00, 0x00, 0xf2, 0x0b, 0x2f, 0x1f, 0x0e, 0xf5, 0xeb, 0x01,
  0xec, 0x1c, 0x10, 0x07, 0x02, 0x12, 0xfa, 0x16, 0x01, 0x06, 0x09, 0xef,
  0xe7, 0x0a, 0x12, 0x0d, 0x0a, 0x10, 0xfc, 0x08, 0xf2, 0x10, 0x15, 0x0c,
  0x06, 0x07, 0x01, 0xff, 0xec, 0x0e, 0x2f, 0x11, 0x03, 0x12, 0xfa, 0xf4,
  0xf1, 0x17, 0x16, 0x0d, 0x03, 0x26, 0xeb, 0xe4, 0x00, 0x16, 0x17, 0x14,
  0xf1, 0x16, 0xe2, 0xce, 0x03, 0xfe, 0x21, 0x0c, 0xf3, 0x04, 0xe3, 0xe5,
  0xed, 0xf3, 0x26, 0x0f, 0xf2, 0x03, 0xf3, 0xfe, 0x04, 0xd8, 0x23, 0xf0,
  0xe3, 0xfb, 0x03, 0x04, 0x07, 0xe3, 0x2b, 0x00, 0xba, 0xdf, 0x04, 0x33,
  0x0c, 0xfa, 0x06, 0x08, 0xc7, 0xea, 0x04, 0x1e, 0x16, 0xf6, 0xe2, 0x09,
  0xce, 0xfe, 0x11, 0x29, 0x05, 0x00, 0xdd, 0x0f, 0xc0, 0xfb, 0xfb, 0x0b,
  0x06, 0x00, 0x03, 0x0d, 0xec, 0xd8, 0x04, 0x15, 0x10, 0xe1, 0x13, 0x0a,
  0x0d, 0xf4, 0xff, 0xfc, 0xdf, 0x00, 0xfc, 0xf2, 0x08, 0xee, 0xea, 0xfa,
  0xfe, 0xf9, 0x12, 0xfa, 0x1a, 0xee, 0xeb, 0xf0, 0xfb, 0xf8, 0x06, 0x04,
  0x03, 0xf7, 0xe6, 0x0b, 0x08, 0x07, 0xed, 0xf8, 0x00, 0x0d, 0xf0, 0x0a,
  0x0e, 0x06, 0xfe, 0x0b, 0x27, 0xe6, 0xf0, 0x07, 0x1b, 0x01, 0xf5, 0xee,
  0x20, 0x18, 0xf5, 0x10, 0x06, 0xef, 0xe5, 0xfc, 0x26, 0xbf, 0xf9, 0x23,
  0x0e, 0xf4, 0xee, 0x01, 0xe7, 0xfd, 0xf7, 0x07, 0x0c, 0xfa, 0x0a, 0x0d,
  0x02, 0x09, 0x12, 0xfb, 0x07, 0xba, 0xef, 0x26, 0xbf, 0xaf, 0x23, 0x01,
  0xd4, 0x81, 0xf5, 0x07, 0xd2, 0xae, 0x28, 0xf3, 0xe1, 0xbb, 0x06, 0xef,
  0x27, 0xf0, 0x03, 0x13, 0xe2, 0x09, 0x01, 0xbd, 0x06, 0x0e, 0xda, 0x07,
  0x05, 0x08, 0x07, 0xeb, 0x02, 0xfc, 0x14, 0xdc, 0xfd, 0xfc, 0xe0, 0xd5,
  0xea, 0x14, 0xfc, 0xf7, 0xe0, 0x18, 0xf2, 0x05, 0x07, 0x10, 0x06, 0xf3,
  0x0d, 0xfc, 0xfc, 0xf8, 0x10, 0xfc, 0xdf, 0xfe, 0x09, 0xf9, 0x10, 0xe9,
  0x25, 0xf1, 0xf8, 0x0d, 0x2a, 0xf5, 0xf9, 0xfd, 0x18, 0xfb, 0x08, 0xfd,
  0x0e, 0xe3, 0xca, 0xf6, 0x14, 0xef, 0x00, 0xfb, 0x02, 0xfd, 0x00, 0x00,
  0xbb, 0xef, 0x0f, 0xe6, 0xe0, 0xea, 0x04, 0x1a, 0x01, 0xd4, 0x1d, 0xf9,
  0xd1, 0xf7, 0x12, 0x16, 0x0e, 0xed, 0x07, 0xe3, 0xb4, 0xe5, 0xfb, 0x0a,
  0x13, 0xfd, 0xf4, 0x06, 0x10, 0x01, 0x08, 0xa9, 0x03, 0x05, 0xed, 0x1b,
  0x29, 0x16, 0xf1, 0xfa, 0xfe, 0x1e, 0xf8, 0xf7, 0x14, 0x15, 0xd6, 0x03,
  0xf8, 0x1b, 0x01, 0xf5, 0x14, 0x19, 0xf5, 0x01, 0xca, 0x90, 0x14, 0xeb,
  0x1a, 0xda, 0xe8, 0x32, 0x00, 0xda, 0x0d, 0xf4, 0xe6, 0x13, 0xe2, 0xfc,
  0x04, 0xff, 0xdb, 0xed, 0xed, 0x10, 0xfd, 0xef, 0x1b, 0xe1, 0x0a, 0xf3,
  0xf9, 0x04, 0xf9, 0xf6, 0xe6, 0x03, 0x2d, 0x26, 0xf4, 0x10, 0xf4, 0x06,
  0xdb, 0x11, 0x1b, 0x12, 0x0c, 0x17, 0xf0, 0x02, 0xe9, 0xed, 0x03, 0xe7,
  0xe0, 0x1b, 0x09, 0xfb, 0xf1, 0xfd, 0xff, 0xe9, 0xd7, 0x1b, 0x12, 0x12,
  0xf6, 0xf9, 0xfd, 0xf1, 0xcd, 0x08, 0x21, 0x1b, 0x05, 0xfd, 0x04, 0xee,
  0xe2, 0x09, 0x00, 0x1a, 0xf6, 0x0b, 0x0b, 0xf4, 0xec, 0x1a, 0x32, 0x34,
  0xf0, 0x0c, 0xf4, 0xf0, 0x01, 0x02, 0x10, 0x1b, 0x00, 0x15, 0xee, 0xfa,
  0x10, 0xf3, 0x03, 0x03, 0x0c, 0x12, 0xe8, 0x0d, 0x1b, 0x03, 0x0c, 0xef,
  0xf2, 0x1d, 0xee, 0x08, 0x1a, 0xf8, 0x15, 0x02, 0xf6, 0x01, 0xec, 0x15,
  0x39, 0xf0, 0x0e, 0xe6, 0x02, 0x0d, 0xee, 0x08, 0x15, 0xe7, 0x0e, 0x0b,
  0x01, 0xf4, 0x0d, 0x1d, 0x19, 0xe4, 0xff, 0xfd, 0xda, 0x0c, 0x12, 0x14,
  0x04, 0xd3, 0x07, 0xfc, 0xd3, 0x0a, 0x15, 0x27, 0x18, 0xb5, 0x1b, 0x13,
  0xfa, 0x02, 0xf7, 0xee, 0xdb, 0x0a, 0xf8, 0x03, 0x13, 0xe7, 0xed, 0xfc,
  0x05, 0xf0, 0x08, 0x03, 0x08, 0xe5, 0xe4, 0xfa, 0x04, 0xff, 0x09, 0x02,
  0x13, 0xf4, 0xdf, 0x09, 0x0a, 0x05, 0x00, 0xf1, 0x1c, 0xe9, 0xef, 0x0e,
  0x14, 0xfa, 0xf7, 0xfd, 0x24, 0xf3, 0xf7, 0x11, 0x1f, 0xe6, 0xf3, 0xdf,
  0x3f, 0xd0, 0xfd, 0x14, 0x09, 0xe2, 0xdf, 0xf0, 0x15, 0xf6, 0xfb, 0x0f,
  0x0d, 0xf2, 0x0d, 0x10, 0xd4, 0xfd, 0x1a, 0xfe, 0xf5, 0xe0, 0xef, 0x19,
  0xc3, 0xba, 0x14, 0xe3, 0xea, 0xad, 0xe7, 0x05, 0x0c, 0xb1, 0x25, 0x00,
  0xd9, 0xce, 0xff, 0xff, 0x21, 0xd2, 0x17, 0x17, 0xe1, 0xe1, 0xf1, 0xf4,
  0x17, 0x09, 0xf0, 0x0d, 0xe2, 0x13, 0xf2, 0xaf, 0xfc, 0x1b, 0xef, 0xfe,
  0x19, 0x0a, 0xf9, 0xee, 0x00, 0x02, 0x02, 0xfa, 0xf3, 0x09, 0xeb, 0x12,
  0xf5, 0x19, 0xf7, 0x0a, 0xfa, 0x16, 0xee, 0xff, 0x05, 0xf5, 0xf5, 0x05,
  0x01, 0xf7, 0x01, 0xf9, 0xf4, 0xfe, 0xf9, 0x00, 0xf9, 0x01, 0x01, 0x00,
  0x01, 0xf5, 0xf8, 0xf4, 0x07, 0xf5, 0xfe, 0xfa, 0x07, 0xf5, 0xf2, 0xf5,
  0xfb, 0xfa, 0x02, 0xfa, 0xf9, 0xf5, 0xfd, 0xfe, 0xfb, 0xfc, 0x03, 0xf2,
  0x00, 0xff, 0x00, 0x03, 0x08, 0xfe, 0xf8, 0xf6, 0xf8, 0x06, 0xf9, 0xff,
  0xfb, 0x07, 0xf2, 0x03, 0x08, 0x07, 0x03, 0xf2, 0x06, 0x01, 0xf5, 0xf3,
  0xf3, 0xf6, 0x03, 0xf7, 0xfd, 0xfa, 0xff, 0xf4, 0xf4, 0xf7, 0xf5, 0xfe,
  0xf0, 0xfe, 0xf5, 0xf9, 0x01, 0xfc, 0xf3, 0x03, 0xff, 0xfb, 0xf4, 0xf8,
  0xf4, 0xf5, 0xf9, 0x05, 0xfb, 0x08, 0xf1, 0xf0, 0x04, 0xf9, 0xfb, 0xf5,
  0xee, 0xf4, 0xf6, 0x01, 0xf7, 0xf9, 0xff, 0x08, 0xfd, 0xf7, 0xfb, 0x00,
  0x08, 0xf8, 0xf1, 0xf4, 0xf3, 0xfb, 0x02, 0xff, 0xf8, 0xf3, 0xfe, 0x04,
  0x00, 0x00, 0x06, 0xf7, 0xf3, 0x04, 0x33, 0x2b, 0xfd, 0x15, 0xf5, 0x11,
  0xe4, 0x0a, 0x1e, 0x0c, 0xfa, 0x0e, 0xf7, 0x10, 0xfa, 0xf9, 0x11, 0x02,
  0xe8, 0x19, 0x0f, 0xfc, 0xed, 0xef, 0x03, 0xe3, 0xe9, 0x22, 0x23, 0x05,
  0xec, 0x02, 0xf2, 0xd3, 0xd7, 0x16, 0x12, 0x0f, 0xfa, 0xf6, 0x06, 0xd6,
  0xcc, 0xf6, 0x12, 0x0f, 0xec, 0x09, 0x02, 0xd7, 0xd7, 0xfe, 0x21, 0x28,
  0xc5, 0x21, 0x0e, 0xec, 0xeb, 0xf6, 0x17, 0x1a, 0xce, 0x10, 0x09, 0xed,
  0x08, 0xef, 0x14, 0x13, 0xd7, 0x07, 0x04, 0x09, 0x1b, 0xf8, 0x09, 0x0d,
  0xec, 0x0d, 0xe2, 0x11, 0x1b, 0x08, 0xf1, 0x0a, 0xfe, 0x16, 0xdd, 0xff,
  0x14, 0x15, 0x00, 0x00, 0xf6, 0x1a, 0xe1, 0xef, 0x12, 0x0d, 0x05, 0x0d,
  0xfc, 0xff, 0x09, 0x0c, 0x28, 0xf5, 0x14, 0xfd, 0x08, 0xfe, 0x1b, 0x06,
  0xef, 0xe6, 0x05, 0xff, 0x01, 0xfe, 0x1e, 0x1c, 0xf9, 0xf5, 0x16, 0xf5,
  0xec, 0x14, 0x2d, 0x25, 0x16, 0x00, 0x0a, 0x14, 0xdd, 0x1f, 0x1c, 0x15,
  0x07, 0x01, 0x0c, 0x2a, 0xcf, 0x10, 0x25, 0xfd, 0xed, 0x04, 0x0f, 0x17,
  0xde, 0x14, 0x16, 0xde, 0xfd, 0xe6, 0x32, 0xfa, 0xc7, 0x12, 0x0b, 0xf3,
  0xef, 0xe6, 0x31, 0x16, 0xb9, 0x17, 0x01, 0xe9, 0xfc, 0xfe, 0x1b, 0x15,
  0x9c, 0x30, 0xf3, 0xe9, 0xfa, 0x02, 0x09, 0x05, 0xac, 0x35, 0xfd, 0xf9,
  0x01, 0x00, 0x02, 0xfd, 0xc1, 0x22, 0xf8, 0xed, 0x16, 0xf9, 0x16, 0xff,
  0xd5, 0x10, 0xf2, 0xf4, 0x0c, 0x05, 0x0c, 0xf9, 0xec, 0xfb, 0xeb, 0xfa,
  0x01, 0x0d, 0x0e, 0xf5, 0x01, 0x08, 0xe3, 0xfb, 0xfb, 0x07, 0x11, 0x08,
  0xff, 0x03, 0xf2, 0x0a, 0x0b, 0x0b, 0x00, 0x13, 0xfc, 0xf7, 0x08, 0x11,
  0x0f, 0x01, 0x01, 0x13, 0x04, 0xf7, 0x16, 0x10, 0xff, 0xff, 0x00, 0x0d,
  0x0c, 0xf2, 0x18, 0x19, 0x05, 0xff, 0x20, 0xea, 0xb8, 0x17, 0x32, 0x30,
  0x11, 0xe8, 0x0e, 0x01, 0x9c, 0x2e, 0x1a, 0x09, 0x06, 0xe6, 0x00, 0x02,
  0xcc, 0x0d, 0x1c, 0x1e, 0xf1, 0xf3, 0x10, 0x10, 0xcb, 0x04, 0x14, 0x0e,
  0xe0, 0x10, 0x13, 0xfa, 0xd9, 0x13, 0x1e, 0xfd, 0xfb, 0x14, 0x0a, 0x03,
  0xe8, 0x14, 0xf8, 0xe4, 0xfe, 0x1a, 0x11, 0x1e, 0xf7, 0x13, 0x03, 0xd7,
  0xef, 0x16, 0x17, 0x0c, 0xeb, 0x11, 0x06, 0xe0, 0xdd, 0x20, 0x18, 0x16,
  0xee, 0x08, 0xfa, 0xe0, 0xdb, 0x0a, 0x14, 0x15, 0xe7, 0x09, 0xfa, 0xe5,
  0xdd, 0xf5, 0x1d, 0x1b, 0xf6, 0xff, 0xef, 0x05, 0x00, 0xf8, 0x0c, 0x12,
  0xfd, 0x02, 0xfc, 0x18, 0x1a, 0xf2, 0x0f, 0x04, 0xfe, 0x03, 0xf3, 0x0a,
  0x08, 0x01, 0x07, 0xf5, 0x03, 0xfc, 0xf6, 0x13, 0x28, 0xf6, 0x09, 0x11,
  0x06, 0xf9, 0x1a, 0x19, 0x15, 0xff, 0x05, 0xfc, 0xf7, 0xfa, 0x07, 0x16,
  0xfe, 0xfc, 0x0c, 0xf3, 0xee, 0x1b, 0x1e, 0x27, 0x10, 0xf5, 0xfe, 0x16,
  0xe9, 0xdf, 0x1d, 0x17, 0x12, 0xf5, 0xfa, 0x18, 0xef, 0xed, 0x07, 0xfd,
  0xfc, 0x02, 0x0d, 0x1a, 0xf1, 0xf2, 0x05, 0xfe, 0xfb, 0x01, 0x09, 0x06,
  0xe4, 0xed, 0x03, 0x05, 0xfc, 0xf7, 0x09, 0x10, 0xda, 0xf9, 0x07, 0x09,
  0x09, 0xfb, 0x19, 0x05, 0xd9, 0x0f, 0xf2, 0x16, 0x0e, 0x00, 0x05, 0x09,
  0xe4, 0x1a, 0xed, 0x08, 0x1e, 0x0c, 0xf8, 0xf5, 0xf6, 0x36, 0xdf, 0xf9,
  0x32, 0x30, 0xfe, 0xff, 0xfe, 0x32, 0xca, 0xec, 0x19, 0x25, 0x12, 0xf8,
  0x06, 0x24, 0xc7, 0xcb, 0xeb, 0x14, 0x2a, 0xdd, 0x18, 0x0e, 0xcd, 0xd3,
  0xf5, 0x09, 0x2a, 0xd0, 0x08, 0x05, 0xf4, 0xf4, 0x1d, 0xff, 0x10, 0xd5,
  0x04, 0xfe, 0x15, 0x04, 0xd1, 0xfe, 0xf7, 0xec, 0xf0, 0x11, 0x0f, 0x0a,
  0xe0, 0xf8, 0xfb, 0xf0, 0xfc, 0x19, 0x22, 0x1f, 0xf2, 0xeb, 0x0b, 0xeb,
  0x00, 0xfe, 0xf1, 0xf3, 0xda, 0x00, 0x04, 0xf6, 0x0c, 0xef, 0xfd, 0x00,
  0xf7, 0xf4, 0x02, 0xe9, 0x08, 0xe6, 0xe2, 0x07, 0xfc, 0x02, 0x05, 0xc4,
  0x0b, 0xfe, 0xf0, 0x14, 0x1a, 0xfb, 0xfc, 0xe1, 0x14, 0xf9, 0xf6, 0x0d,
  0x11, 0xfc, 0xf4, 0xe3, 0x29, 0xe0, 0xf5, 0x14, 0x17, 0xdf, 0xcd, 0xe9,
  0xf3, 0xe8, 0x02, 0x0b, 0x0a, 0xe9, 0x03, 0x01, 0x10, 0xda, 0x21, 0x00,
  0xff, 0xd6, 0x0e, 0x1f, 0xdf, 0xc3, 0x19, 0xf0, 0xc8, 0xa4, 0xea, 0x0f,
  0x11, 0xc6, 0x17, 0xfe, 0xed, 0xc9, 0xfd, 0x07, 0x1e, 0xcc, 0x2b, 0x0d,
  0xd6, 0xf0, 0xf0, 0x12, 0x26, 0xe8, 0xf2, 0x01, 0xd8, 0x0a, 0xfd, 0xb6,
  0x02, 0x24, 0xe2, 0x08, 0x29, 0x10, 0xf7, 0xf8, 0xfb, 0x14, 0xf4, 0xf8,
  0xf8, 0x0e, 0xf0, 0x0f, 0xec, 0x08, 0xfa, 0xfe, 0xf3, 0x11, 0xe8, 0x18,
  0xf9, 0x15, 0xf6, 0x01, 0xf6, 0x0e, 0x01, 0xff, 0x12, 0xde, 0xff, 0xf8,
  0xea, 0xfd, 0x01, 0xe9, 0x10, 0xe4, 0xeb, 0x00, 0xf9, 0xf7, 0x10, 0xf9,
  0x1f, 0x03, 0xec, 0xf3, 0xfa, 0xf6, 0x00, 0x13, 0x00, 0x02, 0xdf, 0xee,
  0x01, 0x06, 0xf8, 0xf8, 0x08, 0x0c, 0xea, 0xff, 0x11, 0x02, 0xf0, 0x04,
  0x18, 0xf0, 0xe9, 0x06, 0x17, 0xfd, 0xfa, 0x03, 0x1a, 0x0b, 0xef, 0x03,
  0x06, 0xed, 0xfb, 0xf1, 0x2d, 0xdd, 0xf2, 0x1c, 0x10, 0xe0, 0xed, 0xf3,
  0x2a, 0xe6, 0xed, 0x0d, 0x12, 0xfd, 0xf8, 0x0b, 0x2b, 0xf5, 0xff, 0x08,
  0x08, 0xe6, 0xfb, 0x15, 0xf2, 0x01, 0x1d, 0x06, 0x05, 0xc0, 0xf9, 0x14,
  0xc5, 0xc7, 0x32, 0xdd, 0xdc, 0xb3, 0xe8, 0xec, 0x0a, 0xc2, 0x18, 0x0a,
  0xe8, 0xe3, 0x29, 0xe4, 0x0a, 0xe9, 0x04, 0x1b, 0xf0, 0xe5, 0xfd, 0xe2,
  0x01, 0xec, 0x0d, 0xfc, 0xf2, 0xf7, 0xe8, 0xb8, 0xfd, 0x05, 0x1a, 0xdf,
  0xd6, 0x1e, 0xf1, 0xc2, 0xba, 0x1c, 0x26, 0x2d, 0x0a, 0xe0, 0x0d, 0x03,
  0x8f, 0x27, 0x0d, 0x13, 0x14, 0xca, 0xfd, 0x05, 0x81, 0x24, 0x10, 0x11,
  0xfa, 0xd9, 0x12, 0x0b, 0x9c, 0x09, 0x15, 0x01, 0xf9, 0xd9, 0x07, 0x07,
  0xb5, 0x21, 0x19, 0x01, 0xf8, 0xf2, 0x11, 0xf4, 0xc0, 0x18, 0xfb, 0xf6,
  0x0c, 0x0b, 0x0d, 0x13, 0xdb, 0x15, 0x13, 0x01, 0xfe, 0x0f, 0xf9, 0x03,
  0xe8, 0x1b, 0xfc, 0xed, 0xff, 0x12, 0x03, 0x03, 0xee, 0xfa, 0xfe, 0xe6,
  0xeb, 0x14, 0x1e, 0x0f, 0xf1, 0x20, 0xf2, 0xe7, 0xe8, 0x0a, 0x0f, 0x0b,
  0xfb, 0x0b, 0xf4, 0xf7, 0xfb, 0x02, 0x1f, 0x0d, 0x0e, 0x03, 0xf7, 0x06,
  0xef, 0xf7, 0x13, 0x14, 0x08, 0xfe, 0xee, 0x06, 0x10, 0x04, 0x0b, 0xfb,
  0x05, 0x07, 0xf6, 0x08, 0x18, 0x05, 0x06, 0x0d, 0x05, 0xef, 0x08, 0x04,
  0x0e, 0x03, 0x03, 0x00, 0x04, 0xfc, 0x05, 0x09, 0xfe, 0xfe, 0x0e, 0xf4,
  0x06, 0xff, 0xd5, 0xf4, 0xf4, 0x05, 0xf7, 0x00, 0x0c, 0xef, 0x04, 0xfa,
  0xf7, 0xe9, 0x08, 0xfa, 0x0c, 0xf3, 0xee, 0xff, 0xef, 0xfc, 0x01, 0xda,
  0x16, 0xf3, 0xf4, 0x0a, 0x13, 0xe6, 0x0d, 0xe8, 0x1f, 0xd7, 0xff, 0x19,
  0x19, 0xe5, 0x02, 0xcb, 0x20, 0xfd, 0x0a, 0x10, 0x06, 0xf0, 0xe7, 0xf7,
  0x0b, 0x09, 0x01, 0x07, 0x05, 0xf7, 0xf4, 0xfe, 0xcc, 0xeb, 0x2b, 0xfb,
  0xf0, 0xde, 0xe4, 0xfe, 0xba, 0xc0, 0x22, 0xe7, 0xdf, 0xd1, 0xeb, 0xfe,
  0x14, 0xdf, 0x27, 0x07, 0xcd, 0xe6, 0xeb, 0x03, 0x0a, 0xef, 0x03, 0x25,
  0xc8, 0x07, 0xf0, 0xe1, 0x08, 0x16, 0xd4, 0x0e, 0xef, 0x0f, 0x0a, 0xe6,
  0xfa, 0x14, 0xf3, 0xfd, 0x12, 0x0d, 0xee, 0x26, 0xfc, 0x02, 0xfd, 0xff,
  0xfb, 0x17, 0xf5, 0x12, 0x00, 0x05, 0xf4, 0xf2, 0xf2, 0x24, 0x0f, 0x06,
  0x05, 0x04, 0xf3, 0xfe, 0x0f, 0xfc, 0xe3, 0x16, 0x12, 0xf6, 0xf1, 0xff,
  0xee, 0x00, 0x01, 0xf5, 0x11, 0xf5, 0xf9, 0xfd, 0xf8, 0xee, 0x16, 0xee,
  0x12, 0xfa, 0xe8, 0x0f, 0x14, 0xf4, 0xfc, 0xd5, 0x12, 0xe1, 0x08, 0x02,
  0x1a, 0xd9, 0x03, 0xbd, 0x1a, 0xd7, 0xfc, 0x1b, 0x0b, 0xe8, 0xdd, 0xc7,
  0x0a, 0xf8, 0x1c, 0x03, 0xfa, 0x0c, 0xef, 0x09, 0xb1, 0xea, 0x1a, 0x03,
  0xfa, 0xee, 0xed, 0x03, 0xff, 0xdd, 0x1f, 0xea, 0xe8, 0xd4, 0x00, 0x12,
  0x1d, 0xc2, 0x21, 0x11, 0xc3, 0xed, 0x00, 0x04, 0x06, 0xed, 0x18, 0x19,
  0xb0, 0x02, 0xfe, 0xf2, 0x02, 0x04, 0xf9, 0x1a, 0xea, 0x0b, 0xf9, 0x07,
  0x02, 0x0e, 0xda, 0xf6, 0x10, 0x18, 0x0a, 0xfa, 0x08, 0x15, 0xcf, 0xed,
  0x13, 0x10, 0x08, 0x14, 0x08, 0xfc, 0xf7, 0x03, 0x08, 0x14, 0xff, 0x0a,
  0xfd, 0x07, 0xeb, 0xf1, 0xff, 0x1f, 0xf8, 0x17, 0x0b, 0x19, 0xe1, 0xe0,
  0xf6, 0x0c, 0xcf, 0x00, 0xdc, 0x04, 0xcb, 0xed, 0x03, 0x08, 0xfd, 0x0f,
  0xe4, 0xfa, 0xd6, 0x05, 0x00, 0x1b, 0x04, 0x0f, 0x07, 0xfb, 0x01, 0x02,
  0x05, 0xef, 0x12, 0x15, 0x23, 0xe8, 0xe8, 0xda, 0xf6, 0xfc, 0x29, 0xf5,
  0x03, 0xfd, 0xe6, 0xe1, 0xd5, 0xfc, 0x14, 0xfd, 0x0a, 0xff, 0xde, 0xfe,
  0x0b, 0xf2, 0x08, 0xfd, 0x15, 0x12, 0xf3, 0x05, 0x26, 0xe8, 0xfa, 0xd7,
  0x15, 0xf1, 0x00, 0x1c, 0x16, 0xef, 0xd0, 0xb5, 0x1a, 0x08, 0x09, 0x03,
  0x16, 0x06, 0xce, 0x08, 0xd6, 0x03, 0x1a, 0xff, 0xf8, 0xf4, 0xf3, 0x0a,
  0xce, 0xd3, 0x1d, 0xe9, 0xdf, 0xc2, 0xe7, 0x00, 0x10, 0xbc, 0x1a, 0x07,
  0xdc, 0xde, 0xef, 0xf5, 0x17, 0xe8, 0x0e, 0x1f, 0xd1, 0xef, 0xe1, 0xfc,
  0x04, 0x08, 0x01, 0x11, 0xde, 0x17, 0xf1, 0x02, 0xfc, 0x0f, 0x03, 0xf8,
  0x01, 0xfb, 0x03, 0xec, 0xfd, 0x0a, 0x08, 0xe8, 0x05, 0x12, 0xfb, 0x12,
  0x86, 0xfc, 0xff, 0xff, 0x04, 0x00, 0x00, 0x00, 0x40, 0x00, 0x00, 0x00,
  0x32, 0x02, 0x00, 0x00, 0x50, 0xfe, 0xff, 0xff, 0xae, 0xfe, 0xff, 0xff,
  0x64, 0x01, 0x00, 0x00, 0xc0, 0xfc, 0xff, 0xff, 0xab, 0xff, 0xff, 0xff,
  0xdd, 0x01, 0x00, 0x00, 0x09, 0x01, 0x00, 0x00, 0xe7, 0xff, 0xff, 0xff,
  0x73, 0x00, 0x00, 0x00, 0x05, 0xfc, 0xff, 0xff, 0xc4, 0xfe, 0xff, 0xff,
  0xb9, 0xff, 0xff, 0xff, 0x8e, 0xfc, 0xff, 0xff, 0xef, 0xfb, 0xff, 0xff,
  0xdc, 0xff, 0xff, 0xff, 0xd2, 0xfc, 0xff, 0xff, 0x04, 0x00, 0x00, 0x00,
  0x10, 0x00, 0x00, 0x00, 0xcb, 0x24, 0x3c, 0xcf, 0x20, 0x7f, 0xb6, 0xbb,
  0xbb, 0xc3, 0x2d, 0x2b, 0xa4, 0x2b, 0x32, 0x2f, 0xee, 0xfc, 0xff, 0xff,
  0x04, 0x00, 0x00, 0x00, 0x04, 0x00, 0x00, 0x00, 0x75, 0x00, 0x00, 0x00,
  0xfe, 0xfc, 0xff, 0xff, 0x04, 0x00, 0x00, 0x00, 0x08, 0x00, 0x00, 0x00,
  0xff, 0xff, 0xff, 0xff, 0x80, 0x00, 0x00, 0x00, 0x14, 0xef, 0xff, 0xff,
  0x16, 0xfd, 0xff, 0xff, 0x04, 0x00, 0x00, 0x00, 0x04, 0x00, 0x00, 0x00,
  0x0d, 0x00, 0x00, 0x00, 0x26, 0xfd, 0xff, 0xff, 0x04, 0x00, 0x00, 0x00,
  0x04, 0x00, 0x00, 0x00, 0x46, 0x00, 0x00, 0x00, 0x36, 0xfd, 0xff, 0xff,
  0x04, 0x00, 0x00, 0x00, 0x04, 0x00, 0x00, 0x00, 0x01, 0x00, 0x00, 0x00,
  0x46, 0xfd, 0xff, 0xff, 0x04, 0x00, 0x00, 0x00, 0x04, 0x00, 0x00, 0x00,
  0x00, 0x00, 0x00, 0x00, 0x58, 0xef, 0xff, 0xff, 0x5c, 0xef, 0xff, 0xff,
  0x0f, 0x00, 0x00, 0x00, 0x4d, 0x4c, 0x49, 0x52, 0x20, 0x43, 0x6f, 0x6e,
  0x76, 0x65, 0x72, 0x74, 0x65, 0x64, 0x2e, 0x00, 0x01, 0x00, 0x00, 0x00,
  0x14, 0x00, 0x00, 0x00, 0x00, 0x00, 0x0e, 0x00, 0x18, 0x00, 0x14, 0x00,
  0x10, 0x00, 0x0c, 0x00, 0x08, 0x00, 0x04, 0x00, 0x0e, 0x00, 0x00, 0x00,
  0x14, 0x00, 0x00, 0x00, 0x1c, 0x00, 0x00, 0x00, 0x34, 0x03, 0x00, 0x00,
  0x38, 0x03, 0x00, 0x00, 0x3c, 0x03, 0x00, 0x00, 0x04, 0x00, 0x00, 0x00,
  0x6d, 0x61, 0x69, 0x6e, 0x00, 0x00, 0x00, 0x00, 0x0c, 0x00, 0x00, 0x00,
  0xe4, 0x02, 0x00, 0x00, 0x84, 0x02, 0x00, 0x00, 0x2c, 0x02, 0x00, 0x00,
  0x04, 0x02, 0x00, 0x00, 0xa4, 0x01, 0x00, 0x00, 0x50, 0x01, 0x00, 0x00,
  0x08, 0x01, 0x00, 0x00, 0xc4, 0x00, 0x00, 0x00, 0x9c, 0x00, 0x00, 0x00,
  0x60, 0x00, 0x00, 0x00, 0x28, 0x00, 0x00, 0x00, 0x04, 0x00, 0x00, 0x00,
  0x2a, 0xfe, 0xff, 0xff, 0x0c, 0x00, 0x00, 0x00, 0x10, 0x00, 0x00, 0x00,
  0x07, 0x00, 0x00, 0x00, 0x01, 0x00, 0x00, 0x00, 0x1a, 0x00, 0x00, 0x00,
  0x01, 0x00, 0x00, 0x00, 0x19, 0x00, 0x00, 0x00, 0xd6, 0xfd, 0xff, 0xff,
  0x14, 0x00, 0x00, 0x00, 0x00, 0x00, 0x00, 0x08, 0x10, 0x00, 0x00, 0x00,
  0x14, 0x00, 0x00, 0x00, 0x06, 0x00, 0x00, 0x00, 0x1c, 0xf0, 0xff, 0xff,
  0x01, 0x00, 0x00, 0x00, 0x19, 0x00, 0x00, 0x00, 0x03, 0x00, 0x00, 0x00,
  0x18, 0x00, 0x00, 0x00, 0x08, 0x00, 0x00, 0x00, 0x07, 0x00, 0x00, 0x00,
  0x0a, 0xfe, 0xff, 0xff, 0x14, 0x00, 0x00, 0x00, 0x00, 0x00, 0x00, 0x08,
  0x14, 0x00, 0x00, 0x00, 0x18, 0x00, 0x00, 0x00, 0x06, 0x00, 0x00, 0x00,
  0xa2, 0xfd, 0xff, 0xff, 0x00, 0x00, 0x00, 0x01, 0x01, 0x00, 0x00, 0x00,
  0x18, 0x00, 0x00, 0x00, 0x03, 0x00, 0x00, 0x00, 0x17, 0x00, 0x00, 0x00,
  0x0a, 0x00, 0x00, 0x00, 0x09, 0x00, 0x00, 0x00, 0xb6, 0xfe, 0xff, 0xff,
  0x0c, 0x00, 0x00, 0x00, 0x10, 0x00, 0x00, 0x00, 0x03, 0x00, 0x00, 0x00,
  0x01, 0x00, 0x00, 0x00, 0x17, 0x00, 0x00, 0x00, 0x02, 0x00, 0x00, 0x00,
  0x16, 0x00, 0x00, 0x00, 0x06, 0x00, 0x00, 0x00, 0x66, 0xfe, 0xff, 0xff,
  0x14, 0x00, 0x00, 0x00, 0x00, 0x00, 0x00, 0x05, 0x24, 0x00, 0x00, 0x00,
  0x28, 0x00, 0x00, 0x00, 0x05, 0x00, 0x00, 0x00, 0x7a, 0xff, 0xff, 0xff,
  0x02, 0x00, 0x00, 0x00, 0x02, 0x00, 0x00, 0x00, 0x02, 0x00, 0x00, 0x00,
  0x02, 0x00, 0x00, 0x00, 0x00, 0x00, 0x00, 0x01, 0x01, 0x00, 0x00, 0x00,
  0x16, 0x00, 0x00, 0x00, 0x01, 0x00, 0x00, 0x00, 0x15, 0x00, 0x00, 0x00,
  0xa6, 0xfe, 0xff, 0xff, 0x14, 0x00, 0x00, 0x00, 0x00, 0x00, 0x00, 0x01,
  0x20, 0x00, 0x00, 0x00, 0x24, 0x00, 0x00, 0x00, 0x04, 0x00, 0x00, 0x00,
  0x6c, 0xff, 0xff, 0xff, 0x00, 0x00, 0x00, 0x01, 0x01, 0x00, 0x00, 0x00,
  0x01, 0x00, 0x00, 0x00, 0x00, 0x00, 0x00, 0x01, 0x01, 0x00, 0x00, 0x00,
  0x15, 0x00, 0x00, 0x00, 0x03, 0x00, 0x00, 0x00, 0x14, 0x00, 0x00, 0x00,
  0x0c, 0x00, 0x00, 0x00, 0x0b, 0x00, 0x00, 0x00, 0xea, 0xfe, 0xff, 0xff,
  0x24, 0x00, 0x00, 0x00, 0x00, 0x00, 0x00, 0x05, 0x34, 0x00, 0x00, 0x00,
  0x38, 0x00, 0x00, 0x00, 0x05, 0x00, 0x00, 0x00, 0x00, 0x00, 0x0e, 0x00,
  0x18, 0x00, 0x17, 0x00, 0x10, 0x00, 0x0c, 0x00, 0x08, 0x00, 0x04, 0x00,
  0x0e, 0x00, 0x00, 0x00, 0x02, 0x00, 0x00, 0x00, 0x02, 0x00, 0x00, 0x00,
  0x02, 0x00, 0x00, 0x00, 0x02, 0x00, 0x00, 0x00, 0x00, 0x00, 0x00, 0x01,
  0x01, 0x00, 0x00, 0x00, 0x14, 0x00, 0x00, 0x00, 0x01, 0x00, 0x00, 0x00,
  0x13, 0x00, 0x00, 0x00, 0x3a, 0xff, 0xff, 0xff, 0x20, 0x00, 0x00, 0x00,
  0x00, 0x00, 0x00, 0x01, 0x2c, 0x00, 0x00, 0x00, 0x30, 0x00, 0x00, 0x00,
  0x04, 0x00, 0x00, 0x00, 0x0c, 0x00, 0x14, 0x00, 0x13, 0x00, 0x0c, 0x00,
  0x08, 0x00, 0x07, 0x00, 0x0c, 0x00, 0x00, 0x00, 0x00, 0x00, 0x00, 0x01,
  0x01, 0x00, 0x00, 0x00, 0x01, 0x00, 0x00, 0x00, 0x00, 0x00, 0x00, 0x01,
  0x01, 0x00, 0x00, 0x00, 0x13, 0x00, 0x00, 0x00, 0x03, 0x00, 0x00, 0x00,
  0x12, 0x00, 0x00, 0x00, 0x0e, 0x00, 0x00, 0x00, 0x0d, 0x00, 0x00, 0x00,
  0x00, 0x00, 0x0a, 0x00, 0x10, 0x00, 0x0c, 0x00, 0x08, 0x00, 0x04, 0x00,
  0x0a, 0x00, 0x00, 0x00, 0x0c, 0x00, 0x00, 0x00, 0x10, 0x00, 0x00, 0x00,
  0x03, 0x00, 0x00, 0x00, 0x01, 0x00, 0x00, 0x00, 0x12, 0x00, 0x00, 0x00,
  0x02, 0x00, 0x00, 0x00, 0x00, 0x00, 0x00, 0x00, 0x11, 0x00, 0x00, 0x00,
  0xba, 0xff, 0xff, 0xff, 0x1c, 0x00, 0x00, 0x00, 0x00, 0x00, 0x00, 0x3b,
  0x1c, 0x00, 0x00, 0x00, 0x20, 0x00, 0x00, 0x00, 0x02, 0x00, 0x00, 0x00,
  0x00, 0x00, 0x06, 0x00, 0x08, 0x00, 0x04, 0x00, 0x06, 0x00, 0x00, 0x00,
  0x04, 0x00, 0x00, 0x00, 0x01, 0x00, 0x00, 0x00, 0x11, 0x00, 0x00, 0x00,
  0x04, 0x00, 0x00, 0x00, 0x10, 0x00, 0x00, 0x00, 0x03, 0x00, 0x00, 0x00,
  0x04, 0x00, 0x00, 0x00, 0x05, 0x00, 0x00, 0x00, 0x00, 0x00, 0x0e, 0x00,
  0x1a, 0x00, 0x14, 0x00, 0x10, 0x00, 0x0c, 0x00, 0x0b, 0x00, 0x04, 0x00,
  0x0e, 0x00, 0x00, 0x00, 0x24, 0x00, 0x00, 0x00, 0x00, 0x00, 0x00, 0x20,
  0x24, 0x00, 0x00, 0x00, 0x28, 0x00, 0x00, 0x00, 0x01, 0x00, 0x00, 0x00,
  0x00, 0x00, 0x0e, 0x00, 0x08, 0x00, 0x00, 0x00, 0x00, 0x00, 0x00, 0x00,
  0x00, 0x00, 0x04, 0x00, 0x0e, 0x00, 0x00, 0x00, 0x01, 0x00, 0x00, 0x00,
  0x01, 0x00, 0x00, 0x00, 0x10, 0x00, 0x00, 0x00, 0x04, 0x00, 0x00, 0x00,
  0x0f, 0x00, 0x00, 0x00, 0x01, 0x00, 0x00, 0x00, 0x02, 0x00, 0x00, 0x00,
  0x02, 0x00, 0x00, 0x00, 0x00, 0x00, 0x0e, 0x00, 0x16, 0x00, 0x00, 0x00,
  0x10, 0x00, 0x0c, 0x00, 0x0b, 0x00, 0x04, 0x00, 0x0e, 0x00, 0x00, 0x00,
  0x18, 0x00, 0x00, 0x00, 0x00, 0x00, 0x00, 0x37, 0x18, 0x00, 0x00, 0x00,
  0x1c, 0x00, 0x00, 0x00, 0x00, 0x00, 0x06, 0x00, 0x08, 0x00, 0x07, 0x00,
  0x06, 0x00, 0x00, 0x00, 0x00, 0x00, 0x00, 0x02, 0x01, 0x00, 0x00, 0x00,
  0x0f, 0x00, 0x00, 0x00, 0x01, 0x00, 0x00, 0x00, 0x00, 0x00, 0x00, 0x00,
  0x01, 0x00, 0x00, 0x00, 0x1a, 0x00, 0x00, 0x00, 0x01, 0x00, 0x00, 0x00,
  0x00, 0x00, 0x00, 0x00, 0x1b, 0x00, 0x00, 0x00, 0x74, 0x0d, 0x00, 0x00,
  0x00, 0x0d, 0x00, 0x00, 0x8c, 0x0c, 0x00, 0x00, 0x3c, 0x0c, 0x00, 0x00,
  0xec, 0x0b, 0x00, 0x00, 0x9c, 0x0b, 0x00, 0x00, 0x50, 0x0b, 0x00, 0x00,
  0xd8, 0x0a, 0x00, 0x00, 0x6c, 0x0a, 0x00, 0x00, 0xf8, 0x09, 0x00, 0x00,
  0x8c, 0x09, 0x00, 0x00, 0xc0, 0x08, 0x00, 0x00, 0xf4, 0x07, 0x00, 0x00,
  0x58, 0x07, 0x00, 0x00, 0xbc, 0x06, 0x00, 0x00, 0x70, 0x06, 0x00, 0x00,
  0x20, 0x06, 0x00, 0x00, 0xcc, 0x05, 0x00, 0x00, 0x3c, 0x05, 0x00, 0x00,
  0x58, 0x04, 0x00, 0x00, 0xc4, 0x03, 0x00, 0x00, 0xd8, 0x02, 0x00, 0x00,
  0x44, 0x02, 0x00, 0x00, 0xc8, 0x01, 0x00, 0x00, 0x1c, 0x01, 0x00, 0x00,
  0x80, 0x00, 0x00, 0x00, 0x04, 0x00, 0x00, 0x00, 0x0e, 0xf3, 0xff, 0xff,
  0x00, 0x00, 0x00, 0x01, 0x18, 0x00, 0x00, 0x00, 0x20, 0x00, 0x00, 0x00,
  0x3c, 0x00, 0x00, 0x00, 0x1b, 0x00, 0x00, 0x00, 0x00, 0x00, 0x00, 0x09,
  0x50, 0x00, 0x00, 0x00, 0x02, 0x00, 0x00, 0x00, 0xff, 0xff, 0xff, 0xff,
  0x01, 0x00, 0x00, 0x00, 0xf4, 0xf2, 0xff, 0xff, 0x08, 0x00, 0x00, 0x00,
  0x10, 0x00, 0x00, 0x00, 0x01, 0x00, 0x00, 0x00, 0x80, 0xff, 0xff, 0xff,
  0xff, 0xff, 0xff, 0xff, 0x01, 0x00, 0x00, 0x00, 0x00, 0x00, 0x80, 0x3b,
  0x19, 0x00, 0x00, 0x00, 0x53, 0x74, 0x61, 0x74, 0x65, 0x66, 0x75, 0x6c,
  0x50, 0x61, 0x72, 0x74, 0x69, 0x74, 0x69, 0x6f, 0x6e, 0x65, 0x64, 0x43,
  0x61, 0x6c, 0x6c, 0x3a, 0x30, 0x00, 0x00, 0x00, 0x02, 0x00, 0x00, 0x00,
  0x01, 0x00, 0x00, 0x00, 0x01, 0x00, 0x00, 0x00, 0x86, 0xf3, 0xff, 0xff,
  0x00, 0x00, 0x00, 0x01, 0x18, 0x00, 0x00, 0x00, 0x20, 0x00, 0x00, 0x00,
  0x40, 0x00, 0x00, 0x00, 0x1a, 0x00, 0x00, 0x00, 0x00, 0x00, 0x00, 0x09,
  0x70, 0x00, 0x00, 0x00, 0x02, 0x00, 0x00, 0x00, 0xff, 0xff, 0xff, 0xff,
  0x01, 0x00, 0x00, 0x00, 0x6c, 0xf3, 0xff, 0xff, 0x08, 0x00, 0x00, 0x00,
  0x14, 0x00, 0x00, 0x00, 0x01, 0x00, 0x00, 0x00, 0x53, 0x00, 0x00, 0x00,
  0x00, 0x00, 0x00, 0x00, 0x00, 0x00, 0x00, 0x00, 0x01, 0x00, 0x00, 0x00,
  0xd9, 0x55, 0x9e, 0x3e, 0x34, 0x00, 0x00, 0x00, 0x73, 0x65, 0x71, 0x75,
  0x65, 0x6e, 0x74, 0x69, 0x61, 0x6c, 0x2f, 0x64, 0x65, 0x6e, 0x73, 0x65,
  0x5f, 0x31, 0x2f, 0x4d, 0x61, 0x74, 0x4d, 0x75, 0x6c, 0x3b, 0x73, 0x65,
  0x71, 0x75, 0x65, 0x6e, 0x74, 0x69, 0x61, 0x6c, 0x2f, 0x64, 0x65, 0x6e,
  0x73, 0x65, 0x5f, 0x31, 0x2f, 0x42, 0x69, 0x61, 0x73, 0x41, 0x64, 0x64,
  0x00, 0x00, 0x00, 0x00, 0x02, 0x00, 0x00, 0x00, 0x01, 0x00, 0x00, 0x00,
  0x01, 0x00, 0x00, 0x00, 0x1e, 0xf4, 0xff, 0xff, 0x00, 0x00, 0x00, 0x01,
  0x18, 0x00, 0x00, 0x00, 0x20, 0x00, 0x00, 0x00, 0x40, 0x00, 0x00, 0x00,
  0x19, 0x00, 0x00, 0x00, 0x00, 0x00, 0x00, 0x09, 0x80, 0x00, 0x00, 0x00,
  0x02, 0x00, 0x00, 0x00, 0xff, 0xff, 0xff, 0xff, 0x10, 0x00, 0x00, 0x00,
  0x04, 0xf4, 0xff, 0xff, 0x08, 0x00, 0x00, 0x00, 0x14, 0x00, 0x00, 0x00,
  0x01, 0x00, 0x00, 0x00, 0x80, 0xff, 0xff, 0xff, 0xff, 0xff, 0xff, 0xff,
  0x00, 0x00, 0x00, 0x00, 0x01, 0x00, 0x00, 0x00, 0xf3, 0x8d, 0x5e, 0x3e,
  0x46, 0x00, 0x00, 0x00, 0x73, 0x65, 0x71, 0x75, 0x65, 0x6e, 0x74, 0x69,
  0x61, 0x6c, 0x2f, 0x64, 0x65, 0x6e, 0x73, 0x65, 0x2f, 0x4d, 0x61, 0x74,
  0x4d, 0x75, 0x6c, 0x3b, 0x73, 0x65, 0x71, 0x75, 0x65, 0x6e, 0x74, 0x69,
  0x61, 0x6c, 0x2f, 0x64, 0x65, 0x6e, 0x73, 0x65, 0x2f, 0x52, 0x65, 0x6c,
  0x75, 0x3b, 0x73, 0x65, 0x71, 0x75, 0x65, 0x6e, 0x74, 0x69, 0x61, 0x6c,
  0x2f, 0x64, 0x65, 0x6e, 0x73, 0x65, 0x2f, 0x42, 0x69, 0x61, 0x73, 0x41,
  0x64, 0x64, 0x00, 0x00, 0x02, 0x00, 0x00, 0x00, 0x01, 0x00, 0x00, 0x00,
  0x10, 0x00, 0x00, 0x00, 0xc6, 0xf4, 0xff, 0xff, 0x00, 0x00, 0x00, 0x01,
  0x18, 0x00, 0x00, 0x00, 0x20, 0x00, 0x00, 0x00, 0x3c, 0x00, 0x00, 0x00,
  0x18, 0x00, 0x00, 0x00, 0x00, 0x00, 0x00, 0x09, 0x50, 0x00, 0x00, 0x00,
  0x02, 0x00, 0x00, 0x00, 0xff, 0xff, 0xff, 0xff, 0x80, 0x00, 0x00, 0x00,
  0xac, 0xf4, 0xff, 0xff, 0x08, 0x00, 0x00, 0x00, 0x10, 0x00, 0x00, 0x00,
  0x01, 0x00, 0x00, 0x00, 0x80, 0xff, 0xff, 0xff, 0xff, 0xff, 0xff, 0xff,
  0x01, 0x00, 0x00, 0x00, 0x3f, 0x80, 0x8f, 0x3d, 0x1a, 0x00, 0x00, 0x00,
  0x73, 0x65, 0x71, 0x75, 0x65, 0x6e, 0x74, 0x69, 0x61, 0x6c, 0x2f, 0x66,
  0x6c, 0x61, 0x74, 0x74, 0x65, 0x6e, 0x2f, 0x52, 0x65, 0x73, 0x68, 0x61,
  0x70, 0x65, 0x00, 0x00, 0x02, 0x00, 0x00, 0x00, 0x01, 0x00, 0x00, 0x00,
  0x80, 0x00, 0x00, 0x00, 0x3e, 0xf5, 0xff, 0xff, 0x00, 0x00, 0x00, 0x01,
  0x18, 0x00, 0x00, 0x00, 0x28, 0x00, 0x00, 0x00, 0x44, 0x00, 0x00, 0x00,
  0x17, 0x00, 0x00, 0x00, 0x00, 0x00, 0x00, 0x09, 0x60, 0x00, 0x00, 0x00,
  0x04, 0x00, 0x00, 0x00, 0xff, 0xff, 0xff, 0xff, 0x10, 0x00, 0x00, 0x00,
  0x01, 0x00, 0x00, 0x00, 0x08, 0x00, 0x00, 0x00, 0x2c, 0xf5, 0xff, 0xff,
  0x08, 0x00, 0x00, 0x00, 0x10, 0x00, 0x00, 0x00, 0x01, 0x00, 0x00, 0x00,
  0x80, 0xff, 0xff, 0xff, 0xff, 0xff, 0xff, 0xff, 0x01, 0x00, 0x00, 0x00,
  0x3f, 0x80, 0x8f, 0x3d, 0x22, 0x00, 0x00, 0x00, 0x73, 0x65, 0x71, 0x75,
  0x65, 0x6e, 0x74, 0x69, 0x61, 0x6c, 0x2f, 0x6d, 0x61, 0x78, 0x5f, 0x70,
  0x6f, 0x6f, 0x6c, 0x69, 0x6e, 0x67, 0x32, 0x64, 0x5f, 0x31, 0x2f, 0x4d,
  0x61, 0x78, 0x50, 0x6f, 0x6f, 0x6c, 0x00, 0x00, 0x04, 0x00, 0x00, 0x00,
  0x01, 0x00, 0x00, 0x00, 0x10, 0x00, 0x00, 0x00, 0x01, 0x00, 0x00, 0x00,
  0x08, 0x00, 0x00, 0x00, 0xce, 0xf5, 0xff, 0xff, 0x00, 0x00, 0x00, 0x01,
  0x18, 0x00, 0x00, 0x00, 0x28, 0x00, 0x00, 0x00, 0x44, 0x00, 0x00, 0x00,
  0x16, 0x00, 0x00, 0x00, 0x00, 0x00, 0x00, 0x09, 0xb8, 0x00, 0x00, 0x00,
  0x04, 0x00, 0x00, 0x00, 0xff, 0xff, 0xff, 0xff, 0x20, 0x00, 0x00, 0x00,
  0x03, 0x00, 0x00, 0x00, 0x08, 0x00, 0x00, 0x00, 0xbc, 0xf5, 0xff, 0xff,
  0x08, 0x00, 0x00, 0x00, 0x10, 0x00, 0x00, 0x00, 0x01, 0x00, 0x00, 0x00,
  0x80, 0xff, 0xff, 0xff, 0xff, 0xff, 0xff, 0xff, 0x01, 0x00, 0x00, 0x00,
  0x3f, 0x80, 0x8f, 0x3d, 0x7a, 0x00, 0x00, 0x00, 0x73, 0x65, 0x71, 0x75,
  0x65, 0x6e, 0x74, 0x69, 0x61, 0x6c, 0x2f, 0x63, 0x6f, 0x6e, 0x76, 0x32,
  0x64, 0x5f, 0x31, 0x2f, 0x52, 0x65, 0x6c, 0x75, 0x3b, 0x73, 0x65, 0x71,
  0x75, 0x65, 0x6e, 0x74, 0x69, 0x61, 0x6c, 0x2f, 0x63, 0x6f, 0x6e, 0x76,
  0x32, 0x64, 0x5f, 0x31, 0x2f, 0x42, 0x69, 0x61, 0x73, 0x41, 0x64, 0x64,
  0x3b, 0x73, 0x65, 0x71, 0x75, 0x65, 0x6e, 0x74, 0x69, 0x61, 0x6c, 0x2f,
  0x63, 0x6f, 0x6e, 0x76, 0x32, 0x64, 0x5f, 0x31, 0x2f, 0x43, 0x6f, 0x6e,
  0x76, 0x32, 0x44, 0x3b, 0x73, 0x65, 0x71, 0x75, 0x65, 0x6e, 0x74, 0x69,
  0x61, 0x6c, 0x2f, 0x63, 0x6f, 0x6e, 0x76, 0x32, 0x64, 0x5f, 0x31, 0x2f,
  0x42, 0x69, 0x61, 0x73, 0x41, 0x64, 0x64, 0x2f, 0x52, 0x65, 0x61, 0x64,
  0x56, 0x61, 0x72, 0x69, 0x61, 0x62, 0x6c, 0x65, 0x4f, 0x70, 0x00, 0x00,
  0x04, 0x00, 0x00, 0x00, 0x01, 0x00, 0x00, 0x00, 0x20, 0x00, 0x00, 0x00,
  0x03, 0x00, 0x00, 0x00, 0x08, 0x00, 0x00, 0x00, 0xb6, 0xf6, 0xff, 0xff,
  0x00, 0x00, 0x00, 0x01, 0x18, 0x00, 0x00, 0x00, 0x28, 0x00, 0x00, 0x00,
  0x44, 0x00, 0x00, 0x00, 0x15, 0x00, 0x00, 0x00, 0x00, 0x00, 0x00, 0x09,
  0x60, 0x00, 0x00, 0x00, 0x04, 0x00, 0x00, 0x00, 0xff, 0xff, 0xff, 0xff,
  0x22, 0x00, 0x00, 0x00, 0x05, 0x00, 0x00, 0x00, 0x04, 0x00, 0x00, 0x00,
  0xa4, 0xf6, 0xff, 0xff, 0x08, 0x00, 0x00, 0x00, 0x10, 0x00, 0x00, 0x00,
  0x01, 0x00, 0x00, 0x00, 0x80, 0xff, 0xff, 0xff, 0xff, 0xff, 0xff, 0xff,
  0x01, 0x00, 0x00, 0x00, 0x8c, 0x42, 0xb5, 0x3d, 0x20, 0x00, 0x00, 0x00,
  0x73, 0x65, 0x71, 0x75, 0x65, 0x6e, 0x74, 0x69, 0x61, 0x6c, 0x2f, 0x6d,
  0x61, 0x78, 0x5f, 0x70, 0x6f, 0x6f, 0x6c, 0x69, 0x6e, 0x67, 0x32, 0x64,
  0x2f, 0x4d, 0x61, 0x78, 0x50, 0x6f, 0x6f, 0x6c, 0x00, 0x00, 0x00, 0x00,
  0x04, 0x00, 0x00, 0x00, 0x01, 0x00, 0x00, 0x00, 0x22, 0x00, 0x00, 0x00,
  0x05, 0x00, 0x00, 0x00, 0x04, 0x00, 0x00, 0x00, 0x46, 0xf7, 0xff, 0xff,
  0x00, 0x00, 0x00, 0x01, 0x18, 0x00, 0x00, 0x00, 0x28, 0x00, 0x00, 0x00,
  0x44, 0x00, 0x00, 0x00, 0x14, 0x00, 0x00, 0x00, 0x00, 0x00, 0x00, 0x09,
  0xb0, 0x00, 0x00, 0x00, 0x04, 0x00, 0x00, 0x00, 0xff, 0xff, 0xff, 0xff,
  0x44, 0x00, 0x00, 0x00, 0x0b, 0x00, 0x00, 0x00, 0x04, 0x00, 0x00, 0x00,
  0x34, 0xf7, 0xff, 0xff, 0x08, 0x00, 0x00, 0x00, 0x10, 0x00, 0x00, 0x00,
  0x01, 0x00, 0x00, 0x00, 0x80, 0xff, 0xff, 0xff, 0xff, 0xff, 0xff, 0xff,
  0x01, 0x00, 0x00, 0x00, 0x8c, 0x42, 0xb5, 0x3d, 0x72, 0x00, 0x00, 0x00,
  0x73, 0x65, 0x71, 0x75, 0x65, 0x6e, 0x74, 0x69, 0x61, 0x6c, 0x2f, 0x63,
  0x6f, 0x6e, 0x76, 0x32, 0x64, 0x2f, 0x52, 0x65, 0x6c, 0x75, 0x3b, 0x73,
  0x65, 0x71, 0x75, 0x65, 0x6e, 0x74, 0x69, 0x61, 0x6c, 0x2f, 0x63, 0x6f,
  0x6e, 0x76, 0x32, 0x64, 0x2f, 0x42, 0x69, 0x61, 0x73, 0x41, 0x64, 0x64,
  0x3b, 0x73, 0x65, 0x71, 0x75, 0x65, 0x6e, 0x74, 0x69, 0x61, 0x6c, 0x2f,
  0x63, 0x6f, 0x6e, 0x76, 0x32, 0x64, 0x2f, 0x43, 0x6f, 0x6e, 0x76, 0x32,
  0x44, 0x3b, 0x73, 0x65, 0x71, 0x75, 0x65, 0x6e, 0x74, 0x69, 0x61, 0x6c,
  0x2f, 0x63, 0x6f, 0x6e, 0x76, 0x32, 0x64, 0x2f, 0x42, 0x69, 0x61, 0x73,
  0x41, 0x64, 0x64, 0x2f, 0x52, 0x65, 0x61, 0x64, 0x56, 0x61, 0x72, 0x69,
  0x61, 0x62, 0x6c, 0x65, 0x4f, 0x70, 0x00, 0x00, 0x04, 0x00, 0x00, 0x00,
  0x01, 0x00, 0x00, 0x00, 0x44, 0x00, 0x00, 0x00, 0x0b, 0x00, 0x00, 0x00,
  0x04, 0x00, 0x00, 0x00, 0x26, 0xf8, 0xff, 0xff, 0x00, 0x00, 0x00, 0x01,
  0x18, 0x00, 0x00, 0x00, 0x28, 0x00, 0x00, 0x00, 0x48, 0x00, 0x00, 0x00,
  0x13, 0x00, 0x00, 0x00, 0x00, 0x00, 0x00, 0x09, 0x5c, 0x00, 0x00, 0x00,
  0x04, 0x00, 0x00, 0x00, 0xff, 0xff, 0xff, 0xff, 0x46, 0x00, 0x00, 0x00,
  0x0d, 0x00, 0x00, 0x00, 0x01, 0x00, 0x00, 0x00, 0x14, 0xf8, 0xff, 0xff,
  0x08, 0x00, 0x00, 0x00, 0x14, 0x00, 0x00, 0x00, 0x01, 0x00, 0x00, 0x00,
  0xff, 0xff, 0xff, 0xff, 0xff, 0xff, 0xff, 0xff, 0x00, 0x00, 0x00, 0x00,
  0x01, 0x00, 0x00, 0x00, 0xc9, 0x89, 0xfc, 0x3d, 0x1a, 0x00, 0x00, 0x00,
  0x73, 0x65, 0x71, 0x75, 0x65, 0x6e, 0x74, 0x69, 0x61, 0x6c, 0x2f, 0x72,
  0x65, 0x73, 0x68, 0x61, 0x70, 0x65, 0x2f, 0x52, 0x65, 0x73, 0x68, 0x61,
  0x70, 0x65, 0x00, 0x00, 0x04, 0x00, 0x00, 0x00, 0x01, 0x00, 0x00, 0x00,
  0x46, 0x00, 0x00, 0x00, 0x0d, 0x00, 0x00, 0x00, 0x01, 0x00, 0x00, 0x00,
  0x22, 0xf9, 0xff, 0xff, 0x00, 0x00, 0x00, 0x01, 0x14, 0x00, 0x00, 0x00,
  0x14, 0x00, 0x00, 0x00, 0x12, 0x00, 0x00, 0x00, 0x00, 0x00, 0x00, 0x02,
  0x30, 0x00, 0x00, 0x00, 0x0c, 0xf9, 0xff, 0xff, 0x20, 0x00, 0x00, 0x00,
  0x73, 0x65, 0x71, 0x75, 0x65, 0x6e, 0x74, 0x69, 0x61, 0x6c, 0x2f, 0x72,
  0x65, 0x73, 0x68, 0x61, 0x70, 0x65, 0x2f, 0x52, 0x65, 0x73, 0x68, 0x61,
  0x70, 0x65, 0x2f, 0x73, 0x68, 0x61, 0x70, 0x65, 0x00, 0x00, 0x00, 0x00,
  0x01, 0x00, 0x00, 0x00, 0x04, 0x00, 0x00, 0x00, 0x72, 0xf9, 0xff, 0xff,
  0x00, 0x00, 0x00, 0x01, 0x14, 0x00, 0x00, 0x00, 0x14, 0x00, 0x00, 0x00,
  0x11, 0x00, 0x00, 0x00, 0x00, 0x00, 0x00, 0x02, 0x30, 0x00, 0x00, 0x00,
  0x5c, 0xf9, 0xff, 0xff, 0x20, 0x00, 0x00, 0x00, 0x73, 0x65, 0x71, 0x75,
  0x65, 0x6e, 0x74, 0x69, 0x61, 0x6c, 0x2f, 0x72, 0x65, 0x73, 0x68, 0x61,
  0x70, 0x65, 0x2f, 0x73, 0x74, 0x72, 0x69, 0x64, 0x65, 0x64, 0x5f, 0x73,
  0x6c, 0x69, 0x63, 0x65, 0x00, 0x00, 0x00, 0x00, 0x00, 0x00, 0x00, 0x00,
  0xbe, 0xf9, 0xff, 0xff, 0x00, 0x00, 0x00, 0x01, 0x14, 0x00, 0x00, 0x00,
  0x14, 0x00, 0x00, 0x00, 0x10, 0x00, 0x00, 0x00, 0x00, 0x00, 0x00, 0x02,
  0x28, 0x00, 0x00, 0x00, 0xa8, 0xf9, 0xff, 0xff, 0x18, 0x00, 0x00, 0x00,
  0x73, 0x65, 0x71, 0x75, 0x65, 0x6e, 0x74, 0x69, 0x61, 0x6c, 0x2f, 0x72,
  0x65, 0x73, 0x68, 0x61, 0x70, 0x65, 0x2f, 0x53, 0x68, 0x61, 0x70, 0x65,
  0x00, 0x00, 0x00, 0x00, 0x01, 0x00, 0x00, 0x00, 0x03, 0x00, 0x00, 0x00,
  0x06, 0xfa, 0xff, 0xff, 0x00, 0x00, 0x00, 0x01, 0x14, 0x00, 0x00, 0x00,
  0x58, 0x00, 0x00, 0x00, 0x0f, 0x00, 0x00, 0x00, 0x00, 0x00, 0x00, 0x09,
  0x6c, 0x00, 0x00, 0x00, 0x6c, 0xf9, 0xff, 0xff, 0x08, 0x00, 0x00, 0x00,
  0x2c, 0x00, 0x00, 0x00, 0x04, 0x00, 0x00, 0x00, 0x00, 0x00, 0x00, 0x00,
  0x00, 0x00, 0x00, 0x00, 0x00, 0x00, 0x00, 0x00, 0x00, 0x00, 0x00, 0x00,
  0x00, 0x00, 0x00, 0x00, 0x00, 0x00, 0x00, 0x00, 0x00, 0x00, 0x00, 0x00,
  0x00, 0x00, 0x00, 0x00, 0x00, 0x00, 0x00, 0x00, 0x04, 0x00, 0x00, 0x00,
  0x79, 0xda, 0xbb, 0x3b, 0xba, 0x45, 0xb9, 0x3b, 0x48, 0x19, 0x88, 0x3b,
  0x54, 0xf5, 0x8d, 0x3b, 0x18, 0x00, 0x00, 0x00, 0x73, 0x65, 0x71, 0x75,
  0x65, 0x6e, 0x74, 0x69, 0x61, 0x6c, 0x2f, 0x63, 0x6f, 0x6e, 0x76, 0x32,
  0x64, 0x2f, 0x43, 0x6f, 0x6e, 0x76, 0x32, 0x44, 0x00, 0x00, 0x00, 0x00,
  0x04, 0x00, 0x00, 0x00, 0x04, 0x00, 0x00, 0x00, 0x03, 0x00, 0x00, 0x00,
  0x03, 0x00, 0x00, 0x00, 0x01, 0x00, 0x00, 0x00, 0x9e, 0xfa, 0xff, 0xff,
  0x00, 0x00, 0x00, 0x01, 0x14, 0x00, 0x00, 0x00, 0x54, 0x00, 0x00, 0x00,
  0x0e, 0x00, 0x00, 0x00, 0x00, 0x00, 0x00, 0x02, 0x78, 0x00, 0x00, 0x00,
  0x04, 0xfa, 0xff, 0xff, 0x08, 0x00, 0x00, 0x00, 0x28, 0x00, 0x00, 0x00,
  0x04, 0x00, 0x00, 0x00, 0x00, 0x00, 0x00, 0x00, 0x00, 0x00, 0x00, 0x00,
  0x00, 0x00, 0x00, 0x00, 0x00, 0x00, 0x00, 0x00, 0x00, 0x00, 0x00, 0x00,
  0x00, 0x00, 0x00, 0x00, 0x00, 0x00, 0x00, 0x00, 0x00, 0x00, 0x00, 0x00,
  0x04, 0x00, 0x00, 0x00, 0x2b, 0x50, 0x39, 0x3a, 0x5b, 0xc4, 0x36, 0x3a,
  0x23, 0x42, 0x06, 0x3a, 0xe6, 0x09, 0x0c, 0x3a, 0x28, 0x00, 0x00, 0x00,
  0x73, 0x65, 0x71, 0x75, 0x65, 0x6e, 0x74, 0x69, 0x61, 0x6c, 0x2f, 0x63,
  0x6f, 0x6e, 0x76, 0x32, 0x64, 0x2f, 0x42, 0x69, 0x61, 0x73, 0x41, 0x64,
  0x64, 0x2f, 0x52, 0x65, 0x61, 0x64, 0x56, 0x61, 0x72, 0x69, 0x61, 0x62,
  0x6c, 0x65, 0x4f, 0x70, 0x00, 0x00, 0x00, 0x00, 0x01, 0x00, 0x00, 0x00,
  0x04, 0x00, 0x00, 0x00, 0x36, 0xfb, 0xff, 0xff, 0x00, 0x00, 0x00, 0x01,
  0x14, 0x00, 0x00, 0x00, 0x88, 0x00, 0x00, 0x00, 0x0d, 0x00, 0x00, 0x00,
  0x00, 0x00, 0x00, 0x09, 0x9c, 0x00, 0x00, 0x00, 0x9c, 0xfa, 0xff, 0xff,
  0x08, 0x00, 0x00, 0x00, 0x4c, 0x00, 0x00, 0x00, 0x08, 0x00, 0x00, 0x00,
  0x00, 0x00, 0x00, 0x00, 0x00, 0x00, 0x00, 0x00, 0x00, 0x00, 0x00, 0x00,
  0x00, 0x00, 0x00, 0x00, 0x00, 0x00, 0x00, 0x00, 0x00, 0x00, 0x00, 0x00,
  0x00, 0x00, 0x00, 0x00, 0x00, 0x00, 0x00, 0x00, 0x00, 0x00, 0x00, 0x00,
  0x00, 0x00, 0x00, 0x00, 0x00, 0x00, 0x00, 0x00, 0x00, 0x00, 0x00, 0x00,
  0x00, 0x00, 0x00, 0x00, 0x00, 0x00, 0x00, 0x00, 0x00, 0x00, 0x00, 0x00,
  0x00, 0x00, 0x00, 0x00, 0x00, 0x00, 0x00, 0x00, 0x08, 0x00, 0x00, 0x00,
  0x7c, 0x1b, 0x02, 0x3c, 0xb4, 0x3f, 0x15, 0x3c, 0x3b, 0x25, 0xa1, 0x3b,
  0xa8, 0x78, 0xab, 0x3b, 0xdc, 0xe3, 0xe6, 0x3b, 0x6d, 0x2c, 0x1b, 0x3c,
  0x89, 0x4a, 0xb2, 0x3b, 0x08, 0x8d, 0xfc, 0x3b, 0x1a, 0x00, 0x00, 0x00,
  0x73, 0x65, 0x71, 0x75, 0x65, 0x6e, 0x74, 0x69, 0x61, 0x6c, 0x2f, 0x63,
  0x6f, 0x6e, 0x76, 0x32, 0x64, 0x5f, 0x31, 0x2f, 0x43, 0x6f, 0x6e, 0x76,
  0x32, 0x44, 0x00, 0x00, 0x04, 0x00, 0x00, 0x00, 0x08, 0x00, 0x00, 0x00,
  0x03, 0x00, 0x00, 0x00, 0x03, 0x00, 0x00, 0x00, 0x04, 0x00, 0x00, 0x00,
  0xfe, 0xfb, 0xff, 0xff, 0x00, 0x00, 0x00, 0x01, 0x14, 0x00, 0x00, 0x00,
  0x84, 0x00, 0x00, 0x00, 0x0c, 0x00, 0x00, 0x00, 0x00, 0x00, 0x00, 0x02,
  0xa8, 0x00, 0x00, 0x00, 0x64, 0xfb, 0xff, 0xff, 0x08, 0x00, 0x00, 0x00,
  0x48, 0x00, 0x00, 0x00, 0x08, 0x00, 0x00, 0x00, 0x00, 0x00, 0x00, 0x00,
  0x00, 0x00, 0x00, 0x00, 0x00, 0x00, 0x00, 0x00, 0x00, 0x00, 0x00, 0x00,
  0x00, 0x00, 0x00, 0x00, 0x00, 0x00, 0x00, 0x00, 0x00, 0x00, 0x00, 0x00,
  0x00, 0x00, 0x00, 0x00, 0x00, 0x00, 0x00, 0x00, 0x00, 0x00, 0x00, 0x00,
  0x00, 0x00, 0x00, 0x00, 0x00, 0x00, 0x00, 0x00, 0x00, 0x00, 0x00, 0x00,
  0x00, 0x00, 0x00, 0x00, 0x00, 0x00, 0x00, 0x00, 0x00, 0x00, 0x00, 0x00,
  0x08, 0x00, 0x00, 0x00, 0x82, 0x3e, 0x38, 0x3a, 0xad, 0x59, 0x53, 0x3a,
  0x6d, 0x32, 0xe4, 0x39, 0xc3, 0xd1, 0xf2, 0x39, 0x20, 0x7b, 0x23, 0x3a,
  0x7f, 0xbd, 0x5b, 0x3a, 0x17, 0x7a, 0xfc, 0x39, 0x5d, 0xd1, 0x32, 0x3a,
  0x2a, 0x00, 0x00, 0x00, 0x73, 0x65, 0x71, 0x75, 0x65, 0x6e, 0x74, 0x69,
  0x61, 0x6c, 0x2f, 0x63, 0x6f, 0x6e, 0x76, 0x32, 0x64, 0x5f, 0x31, 0x2f,
  0x42, 0x69, 0x61, 0x73, 0x41, 0x64, 0x64, 0x2f, 0x52, 0x65, 0x61, 0x64,
  0x56, 0x61, 0x72, 0x69, 0x61, 0x62, 0x6c, 0x65, 0x4f, 0x70, 0x00, 0x00,
  0x01, 0x00, 0x00, 0x00, 0x08, 0x00, 0x00, 0x00, 0xc6, 0xfc, 0xff, 0xff,
  0x00, 0x00, 0x00, 0x01, 0x14, 0x00, 0x00, 0x00, 0x34, 0x00, 0x00, 0x00,
  0x0b, 0x00, 0x00, 0x00, 0x00, 0x00, 0x00, 0x09, 0x44, 0x00, 0x00, 0x00,
  0x2c, 0xfc, 0xff, 0xff, 0x08, 0x00, 0x00, 0x00, 0x14, 0x00, 0x00, 0x00,
  0x01, 0x00, 0x00, 0x00, 0x00, 0x00, 0x00, 0x00, 0x00, 0x00, 0x00, 0x00,
  0x00, 0x00, 0x00, 0x00, 0x01, 0x00, 0x00, 0x00, 0xf1, 0x3b, 0x8f, 0x3c,
  0x17, 0x00, 0x00, 0x00, 0x73, 0x65, 0x71, 0x75, 0x65, 0x6e, 0x74, 0x69,
  0x61, 0x6c, 0x2f, 0x64, 0x65, 0x6e, 0x73, 0x65, 0x2f, 0x4d, 0x61, 0x74,
  0x4d, 0x75, 0x6c, 0x00, 0x02, 0x00, 0x00, 0x00, 0x10, 0x00, 0x00, 0x00,
  0x80, 0x00, 0x00, 0x00, 0x2e, 0xfd, 0xff, 0xff, 0x00, 0x00, 0x00, 0x01,
  0x14, 0x00, 0x00, 0x00, 0x30, 0x00, 0x00, 0x00, 0x0a, 0x00, 0x00, 0x00,
  0x00, 0x00, 0x00, 0x02, 0x50, 0x00, 0x00, 0x00, 0x94, 0xfc, 0xff, 0xff,
  0x08, 0x00, 0x00, 0x00, 0x10, 0x00, 0x00, 0x00, 0x01, 0x00, 0x00, 0x00,
  0x00, 0x00, 0x00, 0x00, 0x00, 0x00, 0x00, 0x00, 0x01, 0x00, 0x00, 0x00,
  0x7a, 0x94, 0xa0, 0x3a, 0x27, 0x00, 0x00, 0x00, 0x73, 0x65, 0x71, 0x75,
  0x65, 0x6e, 0x74, 0x69, 0x61, 0x6c, 0x2f, 0x64, 0x65, 0x6e, 0x73, 0x65,
  0x2f, 0x42, 0x69, 0x61, 0x73, 0x41, 0x64, 0x64, 0x2f, 0x52, 0x65, 0x61,
  0x64, 0x56, 0x61, 0x72, 0x69, 0x61, 0x62, 0x6c, 0x65, 0x4f, 0x70, 0x00,
  0x01, 0x00, 0x00, 0x00, 0x10, 0x00, 0x00, 0x00, 0x9e, 0xfd, 0xff, 0xff,
  0x00, 0x00, 0x00, 0x01, 0x14, 0x00, 0x00, 0x00, 0x30, 0x00, 0x00, 0x00,
  0x09, 0x00, 0x00, 0x00, 0x00, 0x00, 0x00, 0x09, 0x44, 0x00, 0x00, 0x00,
  0x04, 0xfd, 0xff, 0xff, 0x08, 0x00, 0x00, 0x00, 0x10, 0x00, 0x00, 0x00,
  0x01, 0x00, 0x00, 0x00, 0x00, 0x00, 0x00, 0x00, 0x00, 0x00, 0x00, 0x00,
  0x01, 0x00, 0x00, 0x00, 0x77, 0xf2, 0x84, 0x3b, 0x19, 0x00, 0x00, 0x00,
  0x73, 0x65, 0x71, 0x75, 0x65, 0x6e, 0x74, 0x69, 0x61, 0x6c, 0x2f, 0x64,
  0x65, 0x6e, 0x73, 0x65, 0x5f, 0x31, 0x2f, 0x4d, 0x61, 0x74, 0x4d, 0x75,
  0x6c, 0x00, 0x00, 0x00, 0x02, 0x00, 0x00, 0x00, 0x01, 0x00, 0x00, 0x00,
  0x10, 0x00, 0x00, 0x00, 0x06, 0xfe, 0xff, 0xff, 0x00, 0x00, 0x00, 0x01,
  0x14, 0x00, 0x00, 0x00, 0x30, 0x00, 0x00, 0x00, 0x08, 0x00, 0x00, 0x00,
  0x00, 0x00, 0x00, 0x02, 0x54, 0x00, 0x00, 0x00, 0x6c, 0xfd, 0xff, 0xff,
  0x08, 0x00, 0x00, 0x00, 0x10, 0x00, 0x00, 0x00, 0x01, 0x00, 0x00, 0x00,
  0x00, 0x00, 0x00, 0x00, 0x00, 0x00, 0x00, 0x00, 0x01, 0x00, 0x00, 0x00,
  0xf6, 0x27, 0x67, 0x3a, 0x29, 0x00, 0x00, 0x00, 0x73, 0x65, 0x71, 0x75,
  0x65, 0x6e, 0x74, 0x69, 0x61, 0x6c, 0x2f, 0x64, 0x65, 0x6e, 0x73, 0x65,
  0x5f, 0x31, 0x2f, 0x42, 0x69, 0x61, 0x73, 0x41, 0x64, 0x64, 0x2f, 0x52,
  0x65, 0x61, 0x64, 0x56, 0x61, 0x72, 0x69, 0x61, 0x62, 0x6c, 0x65, 0x4f,
  0x70, 0x00, 0x00, 0x00, 0x01, 0x00, 0x00, 0x00, 0x01, 0x00, 0x00, 0x00,
  0x7a, 0xfe, 0xff, 0xff, 0x00, 0x00, 0x00, 0x01, 0x14, 0x00, 0x00, 0x00,
  0x14, 0x00, 0x00, 0x00, 0x07, 0x00, 0x00, 0x00, 0x00, 0x00, 0x00, 0x02,
  0x28, 0x00, 0x00, 0x00, 0x64, 0xfe, 0xff, 0xff, 0x18, 0x00, 0x00, 0x00,
  0x73, 0x65, 0x71, 0x75, 0x65, 0x6e, 0x74, 0x69, 0x61, 0x6c, 0x2f, 0x66,
  0x6c, 0x61, 0x74, 0x74, 0x65, 0x6e, 0x2f, 0x43, 0x6f, 0x6e, 0x73, 0x74,
  0x00, 0x00, 0x00, 0x00, 0x01, 0x00, 0x00, 0x00, 0x02, 0x00, 0x00, 0x00,
  0xc2, 0xfe, 0xff, 0xff, 0x00, 0x00, 0x00, 0x01, 0x14, 0x00, 0x00, 0x00,
  0x14, 0x00, 0x00, 0x00, 0x03, 0x00, 0x00, 0x00, 0x00, 0x00, 0x00, 0x02,
  0x30, 0x00, 0x00, 0x00, 0xac, 0xfe, 0xff, 0xff, 0x22, 0x00, 0x00, 0x00,
  0x73, 0x65, 0x71, 0x75, 0x65, 0x6e, 0x74, 0x69, 0x61, 0x6c, 0x2f, 0x72,
  0x65, 0x73, 0x68, 0x61, 0x70, 0x65, 0x2f, 0x52, 0x65, 0x73, 0x68, 0x61,
  0x70, 0x65, 0x2f, 0x73, 0x68, 0x61, 0x70, 0x65, 0x2f, 0x33, 0x00, 0x00,
  0x00, 0x00, 0x00, 0x00, 0x0e, 0xff, 0xff, 0xff, 0x00, 0x00, 0x00, 0x01,
  0x14, 0x00, 0x00, 0x00, 0x14, 0x00, 0x00, 0x00, 0x05, 0x00, 0x00, 0x00,
  0x00, 0x00, 0x00, 0x02, 0x30, 0x00, 0x00, 0x00, 0xf8, 0xfe, 0xff, 0xff,
  0x22, 0x00, 0x00, 0x00, 0x73, 0x65, 0x71, 0x75, 0x65, 0x6e, 0x74, 0x69,
  0x61, 0x6c, 0x2f, 0x72, 0x65, 0x73, 0x68, 0x61, 0x70, 0x65, 0x2f, 0x52,
  0x65, 0x73, 0x68, 0x61, 0x70, 0x65, 0x2f, 0x73, 0x68, 0x61, 0x70, 0x65,
  0x2f, 0x32, 0x00, 0x00, 0x00, 0x00, 0x00, 0x00, 0x5a, 0xff, 0xff, 0xff,
  0x00, 0x00, 0x00, 0x01, 0x14, 0x00, 0x00, 0x00, 0x14, 0x00, 0x00, 0x00,
  0x04, 0x00, 0x00, 0x00, 0x00, 0x00, 0x00, 0x02, 0x30, 0x00, 0x00, 0x00,
  0x44, 0xff, 0xff, 0xff, 0x22, 0x00, 0x00, 0x00, 0x73, 0x65, 0x71, 0x75,
  0x65, 0x6e, 0x74, 0x69, 0x61, 0x6c, 0x2f, 0x72, 0x65, 0x73, 0x68, 0x61,
  0x70, 0x65, 0x2f, 0x52, 0x65, 0x73, 0x68, 0x61, 0x70, 0x65, 0x2f, 0x73,
  0x68, 0x61, 0x70, 0x65, 0x2f, 0x31, 0x00, 0x00, 0x00, 0x00, 0x00, 0x00,
  0xa6, 0xff, 0xff, 0xff, 0x00, 0x00, 0x00, 0x01, 0x14, 0x00, 0x00, 0x00,
  0x14, 0x00, 0x00, 0x00, 0x03, 0x00, 0x00, 0x00, 0x00, 0x00, 0x00, 0x02,
  0x38, 0x00, 0x00, 0x00, 0x90, 0xff, 0xff, 0xff, 0x28, 0x00, 0x00, 0x00,
  0x73, 0x65, 0x71, 0x75, 0x65, 0x6e, 0x74, 0x69, 0x61, 0x6c, 0x2f, 0x72,
  0x65, 0x73, 0x68, 0x61, 0x70, 0x65, 0x2f, 0x73, 0x74, 0x72, 0x69, 0x64,
  0x65, 0x64, 0x5f, 0x73, 0x6c, 0x69, 0x63, 0x65, 0x2f, 0x73, 0x74, 0x61,
  0x63, 0x6b, 0x5f, 0x31, 0x00, 0x00, 0x00, 0x00, 0x01, 0x00, 0x00, 0x00,
  0x01, 0x00, 0x00, 0x00, 0x00, 0x00, 0x16, 0x00, 0x1c, 0x00, 0x18, 0x00,
  0x17, 0x00, 0x10, 0x00, 0x0c, 0x00, 0x08, 0x00, 0x00, 0x00, 0x00, 0x00,
  0x00, 0x00, 0x07, 0x00, 0x16, 0x00, 0x00, 0x00, 0x00, 0x00, 0x00, 0x01,
  0x18, 0x00, 0x00, 0x00, 0x18, 0x00, 0x00, 0x00, 0x02, 0x00, 0x00, 0x00,
  0x00, 0x00, 0x00, 0x02, 0x38, 0x00, 0x00, 0x00, 0x04, 0x00, 0x04, 0x00,
  0x04, 0x00, 0x00, 0x00, 0x26, 0x00, 0x00, 0x00, 0x73, 0x65, 0x71, 0x75,
  0x65, 0x6e, 0x74, 0x69, 0x61, 0x6c, 0x2f, 0x72, 0x65, 0x73, 0x68, 0x61,
  0x70, 0x65, 0x2f, 0x73, 0x74, 0x72, 0x69, 0x64, 0x65, 0x64, 0x5f, 0x73,
  0x6c, 0x69, 0x63, 0x65, 0x2f, 0x73, 0x74, 0x61, 0x63, 0x6b, 0x00, 0x00,
  0x01, 0x00, 0x00, 0x00, 0x01, 0x00, 0x00, 0x00, 0x00, 0x00, 0x16, 0x00,
  0x20, 0x00, 0x1c, 0x00, 0x1b, 0x00, 0x14, 0x00, 0x10, 0x00, 0x0c, 0x00,
  0x00, 0x00, 0x00, 0x00, 0x08, 0x00, 0x07, 0x00, 0x16, 0x00, 0x00, 0x00,
  0x00, 0x00, 0x00, 0x01, 0x18, 0x00, 0x00, 0x00, 0x30, 0x00, 0x00, 0x00,
  0x4c, 0x00, 0x00, 0x00, 0x01, 0x00, 0x00, 0x00, 0x00, 0x00, 0x00, 0x09,
  0x64, 0x00, 0x00, 0x00, 0x03, 0x00, 0x00, 0x00, 0xff, 0xff, 0xff, 0xff,
  0x46, 0x00, 0x00, 0x00, 0x0d, 0x00, 0x00, 0x00, 0x0c, 0x00, 0x0c, 0x00,
  0x00, 0x00, 0x00, 0x00, 0x08, 0x00, 0x04, 0x00, 0x0c, 0x00, 0x00, 0x00,
  0x08, 0x00, 0x00, 0x00, 0x10, 0x00, 0x00, 0x00, 0x01, 0x00, 0x00, 0x00,
  0xff, 0xff, 0xff, 0xff, 0xff, 0xff, 0xff, 0xff, 0x01, 0x00, 0x00, 0x00,
  0xc9, 0x89, 0xfc, 0x3d, 0x1f, 0x00, 0x00, 0x00, 0x73, 0x65, 0x72, 0x76,
  0x69, 0x6e, 0x67, 0x5f, 0x64, 0x65, 0x66, 0x61, 0x75, 0x6c, 0x74, 0x5f,
  0x72, 0x65, 0x73, 0x68, 0x61, 0x70, 0x65, 0x5f, 0x69, 0x6e, 0x70, 0x75,
  0x74, 0x3a, 0x30, 0x00, 0x03, 0x00, 0x00, 0x00, 0x01, 0x00, 0x00, 0x00,
  0x46, 0x00, 0x00, 0x00, 0x0d, 0x00, 0x00, 0x00, 0x08, 0x00, 0x00, 0x00,
  0x9c, 0x00, 0x00, 0x00, 0x80, 0x00, 0x00, 0x00, 0x70, 0x00, 0x00, 0x00,
  0x60, 0x00, 0x00, 0x00, 0x4c, 0x00, 0x00, 0x00, 0x2c, 0x00, 0x00, 0x00,
  0x18, 0x00, 0x00, 0x00, 0x04, 0x00, 0x00, 0x00, 0xd0, 0xff, 0xff, 0xff,
  0x0e, 0x00, 0x00, 0x00, 0x02, 0x00, 0x00, 0x00, 0x00, 0x00, 0x00, 0x0e,
  0xe0, 0xff, 0xff, 0xff, 0x09, 0x00, 0x00, 0x00, 0x04, 0x00, 0x00, 0x00,
  0x00, 0x00, 0x00, 0x09, 0xf0, 0xff, 0xff, 0xff, 0x11, 0x00, 0x00, 0x00,
  0x02, 0x00, 0x00, 0x00, 0x00, 0x00, 0x00, 0x11, 0x0c, 0x00, 0x10, 0x00,
  0x0f, 0x00, 0x00, 0x00, 0x08, 0x00, 0x04, 0x00, 0x0c, 0x00, 0x00, 0x00,
  0x03, 0x00, 0x00, 0x00, 0x03, 0x00, 0x00, 0x00, 0x00, 0x00, 0x00, 0x03,
  0xdc, 0xff, 0xff, 0xff, 0x16, 0x00, 0x00, 0x00, 0x00, 0x00, 0x00, 0x16,
  0xe8, 0xff, 0xff, 0xff, 0x53, 0x00, 0x00, 0x00, 0x00, 0x00, 0x00, 0x53,
  0xf4, 0xff, 0xff, 0xff, 0x2d, 0x00, 0x00, 0x00, 0x00, 0x00, 0x00, 0x2d,
  0x0c, 0x00, 0x0c, 0x00, 0x0b, 0x00, 0x00, 0x00, 0x00, 0x00, 0x04, 0x00,
  0x0c, 0x00, 0x00, 0x00, 0x4d, 0x00, 0x00, 0x00, 0x00, 0x00, 0x00, 0x4d
};
unsigned int wk_model_int8_0714_tflite_len = 7920;
